[PAD]
[UNK]
[CLS]
[MASK]
[SEP]
!
"
#
$
%
&
'
(
)
*
+
,
-
.
/
0
1
2
3
4
5
6
7
8
9
:
;
<
=
>
?
@
[
\
]
^
_
`
a
b
c
d
e
f
g
h
i
j
k
l
m
n
o
p
q
r
s
t
u
v
w
x
y
z
{
|
}
~
¡
¢
£
¤
¥
¦
§
¨
©
ª
«
¬
®
¯
°
±
²
³
´
µ
¶
·
¸
¹
º
»
¼
½
¾
¿
×
ß
æ
ð
÷
ø
þ
đ
ı
ł
œ
ƒ
ǀ
ə
ˆ
˜
˸
α
β
γ
δ
ε
η
θ
ι
κ
λ
μ
ν
ο
π
ρ
ς
σ
τ
υ
φ
χ
ω
а
б
в
г
д
е
ж
з
и
к
л
м
н
о
п
р
с
т
у
ф
х
ц
ч
ш
щ
ъ
ы
ь
э
ю
я
ђ
є
ѕ
і
ј
њ
џ
ґ
ա
ե
ն
ր
ב
ה
ו
י
ל
ע
ר
ת
،
ء
ا
ب
ة
ت
ث
ج
ح
خ
د
ذ
ر
ز
س
ش
ص
ض
ط
ظ
ع
غ
ـ
ف
ق
ك
ل
م
ن
ه
و
ى
ي
ٱ
پ
ک
گ
ہ
ی
ے
ः
अ
आ
इ
ई
उ
ऊ
ऋ
ऍ
ऎ
ए
ऐ
ऑ
ऒ
ओ
औ
क
ख
ग
घ
ङ
च
छ
ज
झ
ञ
ट
ठ
ड
ढ
ण
त
थ
द
ध
न
प
फ
ब
भ
म
य
र
ल
ळ
व
श
ष
स
ह
ऽ
ा
ि
ी
ॉ
ॊ
ो
ौ
ॐ
ॠ
।
॥
०
१
२
३
४
५
६
७
८
९
॰
ং
ক
গ
জ
ট
ড
ত
দ
ন
প
ব
ম
য
র
ল
স
হ
া
ি
ী
ে
৷
ਅ
ਉ
ਔ
ਕ
ਖ
ਜ
ਤ
ਦ
ਧ
ਨ
ਪ
ਫ
ਬ
ਮ
ਰ
ਲ
ਸ
ਹ
ਾ
ਿ
ੀ
અ
ક
ગ
જ
ત
થ
દ
ન
પ
બ
મ
ય
ર
લ
વ
સ
હ
ા
ી
ો
୦
୧
୨
୩
୪
୫
୬
୭
୮
୯
க
ச
ஜ
ட
ண
த
ந
ன
ப
ம
ய
ர
ற
ல
ள
ழ
வ
ா
ி
ு
ே
ை
ం
అ
క
గ
ట
డ
త
ద
న
ప
మ
య
ర
ల
వ
స
ు
ಂ
ಕ
ಗ
ಡ
ತ
ನ
ಮ
ರ
ಲ
ಳ
ವ
ಸ
ಾ
ು
ೕ
ം
ക
ട
ത
ന
പ
മ
യ
ര
റ
ല
ള
ാ
ി
െ
ก
ง
ด
ท
น
ภ
ม
ย
ร
ล
ว
ษ
อ
ะ
า
฿
เ
ไ
་
ာ
ᄀ
ᄂ
ᄃ
ᄅ
ᄆ
ᄇ
ᄉ
ᄋ
ᄌ
ᄎ
ᄏ
ᄐ
ᄑ
ᄒ
ᅡ
ᅢ
ᅥ
ᅦ
ᅧ
ᅩ
ᅪ
ᅮ
ᅳ
ᅴ
ᅵ
ᆨ
ᆫ
ᆯ
ᆷ
ᆸ
ᆼ
‐
‒
–
—
―
‘
’
‚
“
”
„
†
‡
•
…
‰
′
″
‹
›
※
⁄
€
₹
⃣
℃
№
™
←
↑
→
↓
⇈
⇒
⇝
−
√
≤
≥
⋆
⏩
⏭
─
━
═
█
■
▪
▬
▭
▶
►
▼
◆
○
◎
●
☀
★
☆
☎
☝
☞
☰
☺
♂
♒
♡
♣
♥
♦
⚜
⚫
✅
✉
✍
✓
✔
✳
❣
❤
➖
➞
➡
➣
➤
⠀
、
。
「
」
【
】
〡
〰
あ
い
う
え
お
か
き
く
け
こ
さ
し
す
せ
そ
た
ち
っ
つ
て
と
な
に
の
は
ま
み
め
も
や
よ
ら
り
る
れ
を
ん
ア
ィ
イ
カ
キ
ク
コ
サ
シ
ス
タ
チ
ッ
テ
ト
ナ
ハ
ヒ
フ
ホ
マ
ム
メ
ラ
リ
ル
レ
ロ
ン
・
ー
一
三
上
下
不
与
世
业
丝
个
中
为
主
久
么
之
乐
也
乱
了
事
二
五
亚
交
产
京
人
今
代
以
件
会
伦
体
何
作
信
借
做
偷
先
免
入
全
公
内
円
出
分
划
利
到
前
力
加
动
势
動
化
北
区
十
南
博
即
县
发
可
台
号
司
合
吉
同
名
后
和
品
器
四
国
图
在
地
场
址
城
外
多
大
天
奖
女
好
如
妇
妈
妹
妻
娱
婚
子
学
安
官
定
实
宴
家
小
少
山
州
工
巧
市
干
平
年
广
店
度
开
式
录
彩
影
得
心
快
怎
性
情
成
我
户
所
手
技
投
拍
推
提
插
播
撸
操
放
故
教
数
文
新
方
无
日
时
明
是
最
月
有
服
期
本
术
机
来
林
果
欧
款
水
江
河
法
注
洲
活
流
海
淫
湖
澳
激
熟
爱
片
版
物
特
玩
现
理
生
用
电
男
町
画
百
的
直
相
看
県
真
码
社
票
福
科
空
站
第
简
精
繁
级
线
经
结
网
美
老
者
能
自
色
艺
花
行
表
袜
西
要
观
视
解
語
计
记
说
貸
费
赌
赛
走
身
车
软
载
通
逼
道
部
都
重
金
間
门
院
青
非
面
音
页
频
香
體
高
黄
！
％
（
）
，
：
？
￼
🇮
🇳
🌞
🌷
🌸
🌹
🌺
🌿
🎂
🎯
🏻
🏼
👆
👇
👈
👉
👌
👍
👑
👦
👧
👩
👬
💐
💓
💕
💖
💘
💝
💥
💫
🔥
🔴
🔵
🔶
🔷
🔸
🔹
🕹
😀
😁
😂
😃
😄
😆
😉
😊
😍
😎
😏
😒
😔
😘
😛
😜
😝
😢
🙂
🙏
🚥
🚩
🤣
##t
##i
##s
##h
##°
##р
##і
##µ
##ј
##с
##џ
##e
##n
##o
##m
##ल
##स
##म
##न
##ी
##a
##u
##d
##c
##r
##l
##v
##w
##b
##p
##k
##j
##y
##ो
##इ
##ि
##व
##ग
##य
##श
##र
##g
##त
##उ
##द
##0
##ट
##z
##f
##x
##ध
##ा
##ब
##ऊ
##ओ
##у
##д
##н
##и
##ч
##к
##о
##в
##а
##т
##е
##q
##3
##1
##8
##6
##2
##7
##5
##و
##ر
##क
##4
##9
##ख
##ण
##ज
##п
##ц
##х
##फ
##प
##भ
##ड
##ए
##च
##¤
##¼
##¾
##œ
##ष
##ह
##л
##я
##६
##५
##थ
##अ
##ई
##は
##´
##घ
##ж
##०
##९
##आ
##ॉ
##ª
##¥
##ˆ
##®
##ѕ
##ᅮ
##ᆯ
##ᄋ
##ᅡ
##ᆫ
##ᄒ
##ᆸ
##ᄂ
##ᅵ
##ᄃ
##ᄆ
##ञ
##🏻
##ы
##¹
##¸
##€
##छ
##ौ
##४
##३
##ढ
##м
##г
##б
##ᅳ
##ᄅ
##ᅥ
##ᆷ
##ᄑ
##ः
##ш
##झ
##ł
##に
##℃
##ン
##フ
##の
##ਾ
##з
##ا
##ی
##م
##ن
##²
##ऐ
##þ
##ф
##ь
##ॊ
##☝
##ش
##ᅩ
##ᄉ
##ᄀ
##ᅧ
##ᅪ
##α
##ν
##ο
##υ
##ρ
##ι
##ς
##¦
##ま
##さ
##ら
##な
##か
##👉
##−
##イ
##サ
##£
##ठ
##と
##ᅦ
##ᄇ
##щ
##ي
##ك
##¨
##த
##ு
##ف
##غ
##✔
##ळ
##س
##ل
##ص
##ح
##ে
##ন
##া
##ङ
##క
##ప
##గ
##ա
##ն
##ட
##க
##ா
##ب
##ع
##ت
##ю
##ト
##ß
##º
##¯
##ナ
##キ
##ク
##タ
##ム
##ા
##લ
##ો
##െ
##ള
##ി
##മ
##ാ
##ക
##ന
##っ
##て
##ه
##ల
##స
##న
##د
##ऋ
##ు
##ऍ
##→
##©
##ᆼ
##ı
##½
##ਨ
##ੀ
##ਰ
##ਸ
##ਿ
##ऽ
##¬
##औ
##ગ
##ત
##સ
##હ
##ط
##ـ
##る
##お
##ƒ
##স
##🏼
##७
##レ
##ব
##র
##ん
##く
##よ
##う
##ء
##し
##た
##す
##ک
##१
##२
##λ
##η
##τ
##κ
##า
##ว
##เ
##อ
##ร
##⁄
##ル
##ッ
##ス
##😊
##メ
##ー
##や
##り
##⠀
##➖
##😜
##ו
##ר
##ל
##י
##ת
##ج
##ے
##ᄌ
##π
##ല
##യ
##˜
##ε
##ி
##ன
##ற
##つ
##き
##ハ
##ъ
##ത
##™
##є
##ض
##ਕ
##μ
##ऎ
##æ
##ア
##ே
##ப
##ம
##シ
##リ
##σ
##χ
##ث
##ق
##ة
##வ
##ள
##🔴
##ə
##ґ
##💓
##ה
##ত
##ি
##ক
##テ
##チ
##८
##🙏
##ી
##ऑ
##ى
##દ
##ર
##ન
##ե
##ం
##ద
##₹
##ز
##😄
##ǀ
##✓
##ђ
##み
##こ
##ち
##ಲ
##い
##×
##ী
##خ
##ᅢ
##ᆨ
##ം
##э
##ロ
##ր
##ர
##✍
##ল
##も
##ᄎ
##ม
##ก
##น
##জ
##±
##ਲ
##れ
##ಗ
##ರ
##ಳ
##ヒ
##ラ
##˸
##ہ
##ര
##⃣
##け
##త
##ర
##😘
##♥
##😍
##ક
##ম
##ง
##ท
##¢
##ട
##№
##ᅴ
##÷
##৷
##ழ
##ᄏ
##ย
##گ
##³
##カ
##🌹
##য
##☎
##ય
##θ
##コ
##φ
##ω
##マ
##ਦ
##ø
##😏
##😎
##দ
##হ
##റ
##►
##ய
##👈
##ట
##め
##ந
##ᄐ
##✅
##🎂
##😂
##ล
##●
##ை
##ல
##ಸ
##ು
##య
##మ
##ਹ
##వ
##γ
##ವ
##🚩
##♡
##■
##👇
##ذ
##あ
##ด
##ট
##♦
##ண
##ತ
##👬
##😔
##ಾ
##મ
##વ
##❤
##ะ
##せ
##👆
##🔥
##★
##そ
##ॐ
##ನ
##▶
##đ
##🇳
##β
##♂
##પ
##ظ
##を
##😉
##ィ
##😃
##😀
##😝
##☺
##ਮ
##ð
##ٱ
##🌸
##୯
##୨
##👍
##🤣
##😁
##ড
##😛
##ਪ
##প
##ਤ
##డ
##🇮
##બ
##🔸
##🔹
##ಂ
##જ
##ホ
##え
##୮
##💥
##💖
##💝
##δ
##ע
##പ
##👌
##🌞
##👩
##√
##😆
##ਖ
##🌺
##ॠ
##ב
##ਫ
##ಕ
##ಮ
##ಡ
##￼
##୪
##🌷
##👑
##ং
##ೕ
##☀
##💐
##💘
##ာ
##◆
##💕
##ไ
##━
##ச
##થ
##њ
##❣
##୦
##➡
##୭
##୩
##ਜ
##গ
##پ
##↓
##🌿
##✳
##≥
##▪
##👦
##▼
##↑
##ษ
##⇒
##😢
##🎯
##◎
##฿
##ਅ
##ਉ
##▬
##➞
##ภ
##○
##ਬ
##୧
##👧
##☆
##█
##♒
##ऒ
##⚜
##😒
##ஜ
##▭
##➤
##🙂
##୫
##💫
##≤
##🔶
##═
##〡
##୬
##─
##⏩
##←
##ਧ
##✉
##☞
##♣
##🔵
##⚫
##🚥
##🔷
##అ
##aa
##ar
##an
##in
##ha
##hi
##at
ke
ma
ki
##on
##ya
##sh
##am
##ah
main
##aar
he
##ak
##ai
##ad
##en
##aan
kii
##al
se
kar
ko
##ch
##as
##ur
##ti
##ee
kaa
par
or
pr
##har
##ri
##ab
##iy
##it
##aat
##ay
##ap
ne
##er
##il
##ik
##han
ho
##aal
is
##un
hai
##aj
##is
##ag
##haa
sam
##di
##ane
vi
##te
an
##he
##av
##or
##iye
##esh
##kar
ch
##ra
bhi
ap
##and
##ke
ek
##ne
##le
##og
liye
##li
##es
##um
##ta
##dh
##ir
##ut
to
##uk
rah
aap
di
##ahin
un
##aad
de
##ing
##oo
hi
nahin
##ati
##us
##ul
cha
##hik
##ant
sh
in
##aam
##ana
le
##aha
##se
##ud
##hit
yah
##ari
san
##hat
ham
##ate
hu
##aay
##up
do
##sha
##ahi
bhar
20
sak
##aath
##one
##aas
##aya
##ki
bad
tha
sab
##th
us
##si
##ani
##ho
lag
sha
kiya
##re
##id
karne
##ash
##et
##iv
##taa
ab
jo
##ata
##ach
##ार
co
st
saath
me
man
ban
sar
up
bha
gaya
bi
raj
sa
##aaj
apane
##eg
201
##kh
##ast
##yon
pe
##ni
pur
##aav
##la
pad
##uj
##ataa
##ol
##kaar
##na
##em
tak
vaal
##cha
##yak
te
ad
mil
##ge
na
baad
##st
##od
पर
##ce
log
##uch
##ub
kh
##end
##ish
rahe
ja
po
kaha
tar
kaar
##ase
kum
##aane
ag
sing
##iyon
##iya
##tar
re
prad
mo
##de
jan
##या
##shan
pat
the
sw
jis
hin
singh
thi
jaan
ar
##ent
ut
##are
##me
jaa
diya
unh
bah
vah
kai
##ush
##ान
##bar
##ro
##naa
yaa
gay
be
##ath
rup
al
##hir
rak
shar
kumaar
kuch
lek
##ma
##adi
##ji
##ram
rahaa
##ang
vish
##vi
din
kha
##pur
ais
##oj
bharat
kam
rahi
##sa
hue
kisi
##shi
ye
##yaan
koi
की
##kaa
jai
nir
jab
peh
har
karen
samb
aaj
apni
##da
maan
com
bh
da
baat
lekin
##pan
##aara
##ukh
dar
##hak
##ali
var
si
karte
##ve
gai
hog
कर
##op
##laa
prak
##ok
##aari
pehle
##antri
aapak
dow
##gr
dil
ni
##bh
so
saam
##endra
shaa
##aataa
desh
kya
##ता
hone
को
aa
den
##ess
sur
##eet
##aaya
con
hindi
10
2018
pah
##ct
##hand
va
samay
##che
aad
ti
##dhya
dw
vid
##ist
##ka
का
##ye
ji
vaale
##uru
as
##maan
##mi
##aap
sarkaar
ba
am
kah
aar
##dia
fil
kaam
##aare
##िक
chun
pi
sakate
and
bahut
tarah
lak
##chi
jaataa
##riya
hota
##pi
ve
logon
##ail
##akar
shik
prat
##yog
sabhi
ro
bal
dekh
gaye
##war
ev
और
##ed
##ita
samband
कि
bataa
hua
##cch
unhone
##sht
baar
poli
phir
##ना
iske
##uv
##ber
new
##jan
no
naam
sun
av
##ic
ram
chal
tat
dwaara
saal
vik
##ाल
##ind
cho
##ter
aapako
##tiya
##ard
##wa
##el
evam
##eep
##ty
dh
##ine
##ric
##man
pras
ghar
agar
##ort
go
bhaa
##ore
##aab
##ank
bo
chik
karnaa
wo
##hal
unke
saktaa
##री
##amen
##kari
hon
film
vya
abhi
##ug
##enge
sabase
##00
adhik
dilli
lekar
##hav
chikit
aay
##ala
##aki
du
pak
hoga
police
shri
sang
##haar
dhar
kab
kaary
shuru
##aah
hui
##een
sad
ang
shi
mer
##art
muj
news
##aran
##had
mahi
chaa
##hie
jag
khi
12
##asht
of
##िल
jane
हो
pradesh
sah
dik
##agar
pahun
nik
##ित
khabar
prab
mukh
19
##egi
##uti
##egaa
##aai
##jay
mar
jam
##ile
ph
##eey
ud
##lo
##gi
kyon
##hane
##gar
##mantri
jar
##yan
##ation
##ina
chikitsa
kal
it
lad
maam
##anaa
sp
khe
##ham
##ran
unhen
uske
use
pai
##chaar
bhartiya
##yaar
prati
chunaav
##ot
##bi
##shet
kis
hoti
don
lik
congr
##ivaar
##ही
bach
##bs
karata
vyak
11
jaise
इस
##af
sharma
chahie
vir
mahila
apana
ak
daur
kri
##ron
char
mat
paas
##age
sat
congress
ran
jaankar
##to
on
mukhya
##haas
su
tathaa
pray
vaali
nai
len
##lay
shiksha
rajya
##ite
nav
jin
tab
kshet
bare
madhya
bai
##रा
jal
bich
kan
aise
angre
kaaran
hamaare
##kha
##ika
en
aapke
jay
##ck
##aak
vyakti
raaj
##ood
jaankaree
um
vai
##यो
tr
##nee
##iyaan
unki
liya
saf
##rit
we
##shit
vide
##ust
mujhe
##par
jiv
modi
##pat
##ambar
bar
anya
video
dur
##ini
mad
gayi
##ात
##िए
bataaya
baj
##िया
nar
uttar
tum
sambandhit
##हा
##chaa
yoj
##pr
##yaa
aisa
##char
##und
donon
band
varsh
##gal
pan
haal
15
bij
khar
kiye
वि
baa
shan
##ool
khan
li
##apa
##वा
##vast
shaam
jivan
bol
sir
##uniya
##ek
सा
ha
##gat
##oot
kaise
patr
aav
mish
##aani
##bhaa
duus
18
at
hote
dene
lok
##ega
bat
pand
##िन
muk
##yada
##uri
yahaan
adh
##aanaa
##aate
##कर
yog
chand
zyada
party
##yo
af
##aapt
maha
kabhi
##aanv
jari
rail
sc
##tion
##eer
##va
duniya
isl
##hen
sans
samaj
##amb
##iksha
##ket
purv
banane
रा
dhan
jaati
bas
bl
adhi
##bha
kav
##apur
mere
puri
एक
yat
##san
भी
teen
em
ga
##ला
raha
hogi
media
gar
prav
jah
badi
dauraan
isi
pro
rav
##ft
##eev
##kon
##phi
##lab
ash
khilaa
gr
##chit
dharm
vahi
dev
gand
##ale
##ja
##neeti
pee
##port
##ko
##urt
##aayen
tai
bhag
##ती
pun
##ly
14
vr
##tem
ras
naa
##ति
##hate
anus
##est
hat
##yat
kshetra
for
hind
samaaj
##aksh
sid
alag
##hiti
kat
ta
##aalon
##pal
antar
##vaar
mahat
laga
##ity
##ctor
es
sub
##asth
##tu
vikaas
compan
##saa
सम
##urat
more
ise
##rap
##aae
##hil
##val
maa
##asi
##oon
pari
read
##sab
pradhan
##ayan
viv
##isi
yadi
gh
अप
##ers
##haav
##तर
ghat
ex
yad
hum
aas
##wal
##yaksh
sit
shiv
raa
##नी
##ord
##िस
aat
mit
mantri
maamle
ore
##ci
##aksha
mul
upyog
##aashi
bacch
bhav
aam
ka
##daa
laa
sup
pram
pich
yuv
##ton
##ree
sakati
kho
sal
saamne
##avaar
jahaan
india
pataa
##rica
khel
che
mu
##ाद
bhe
vig
isse
ai
##aadh
लिए
far
vishesh
##isha
##udi
meri
mas
bana
diw
gaanv
##nneeti
mishra
जा
##karan
dal
##asya
##ena
kyonki
##wari
khat
team
bhaaj
kaaphi
##uke
##ment
lakh
maine
##ein
13
##ure
khud
shahar
##udd
ri
##wan
bade
shr
uski
sap
lo
aage
bihar
fai
##aanon
webs
pani
sk
##lic
##ade
param
##mit
##ute
##ive
##ver
netaa
mandi
rasht
##nd
ame
bada
jayega
hoon
sahit
bhaajapa
prakaar
##hin
hamen
आप
deep
daal
##oom
shaamil
##daar
raajnneeti
vaj
jate
##ll
gho
yadav
khilaaf
isliye
chuk
raashi
br
chi
##ook
##hali
jud
rang
##yaay
##ila
नही
##way
pa
sant
mahe
maj
das
सक
swasth
gi
pl
yojana
##ami
aane
die
pahunch
praapt
##सी
shab
##sar
bait
##tee
karod
##tic
bho
vaala
aarop
##dar
##ps
website
##aash
sahi
##hana
##olji
##aatr
##do
gup
chan
bil
pariksha
dekha
pas
nee
##ga
##cy
nahi
jagah
chaar
vichaar
court
##hiyon
iskaa
parivaar
##shish
gu
16
gandhi
maar
sirf
kit
##िर
nov
haath
##ारी
25
aapaki
bacchon
##eeb
##co
karti
post
shak
waalon
gram
##antr
mus
sach
inter
kend
hal
17
##ley
##mar
30
puraa
karke
##ember
anusaar
##aman
gal
##ey
aisi
##desh
##का
hamaari
prem
duusare
200
rakh
his
america
haj
##zi
vibhaa
##ger
rog
##ooch
##ली
##kram
aapkaa
chho
raat
##गा
उन
##gh
mahatv
##waal
blog
shaadi
pradhanmantri
el
##मा
bee
la
unka
aadhaar
gha
isamen
net
aadi
angreji
pu
##une
safal
sex
##aaon
keval
##hu
##mo
shabd
november
##anki
vahaan
dr
mili
tw
##aata
##nat
tho
##ene
badal
company
##hy
nau
##ada
padhe
chat
sarv
##arat
##rik
##istan
janm
mandir
##rish
samasya
##mak
##eek
##yal
ही
cent
paan
##hap
acha
##garh
mukhyamantri
pho
jaanch
laal
baahar
##कष
sho
तो
##गर
ach
ghan
##ction
niv
naj
vahiin
car
tiwari
rashtriya
dinon
janaa
nay
##haan
jisamen
dete
##zaar
son
pet
##inn
##abad
vit
##sabha
dikhaa
##line
##ahat
rupee
saa
saamaan
pehali
khaas
vrath
adhyaksh
gun
vishwa
madhyam
min
vibhaag
##tish
##gaa
bab
mum
##put
aak
##waan
2017
tal
bina
##पर
nam
pichley
yo
##aans
madad
##ास
cam
mob
##aali
kahani
karm
tra
vajah
##दर
kaarykram
im
##uu
##athi
bank
mut
##ia
24
##mid
##bai
chaahate
##hee
maang
rec
##ry
rach
taiyaar
nagar
सर
##aava
##avi
##ss
kare
phone
bhash
usne
nish
report
##hr
fais
##mal
mun
kul
saha
ummid
##antra
aayaa
may
puj
##asar
ind
pal
ur
##tis
##aakar
##temaal
vyap
21
sharir
istemaal
dis
sin
कम
mobile
nae
##eshwar
yahan
jaae
alaava
##aadi
upar
swasthya
हम
dhyaan
##agi
bane
tri
railway
##waas
##alp
hajaar
tas
pande
hona
##aayaa
nak
##waad
karenge
has
yahi
sambandh
qu
उस
gir
jha
रह
aj
col
kap
##dhaar
chhat
##सा
##की
##chal
pesh
##tiyon
dost
##oop
##ukt
##vari
raay
uskaa
prash
##achaar
gyaan
##ियो
##akon
##achar
dab
vin
rahane
centre
##टर
lene
##khya
swar
can
ste
kash
##shak
##uddh
sanjay
##जी
badha
pakistan
raasht
##rat
iti
##दी
pati
seva
vak
jul
##anish
##eel
##bhag
train
sai
laksh
subah
##bhar
##िय
taraf
jisase
online
##wood
##ruti
num
janata
vibh
##ashyak
pash
diwas
jabaki
prayog
pandeya
uplab
meraa
ac
gupta
26
##ff
kad
yatra
yaad
kareeb
##var
##epi
maal
अन
str
chhod
vas
jaay
balki
##ाय
##mat
utp
##hone
##uud
##yar
bhai
narendra
doo
##ikh
##िव
chah
nirmaan
##thaan
##vastha
isaki
chin
down
suraksha
han
##jab
mal
##der
##pe
number
jit
taree
mila
record
##कार
##iti
##ाम
##ोग
##aaki
vigyaan
aavashyak
vidhan
27
saat
##arn
anil
sthiti
tu
##reen
##shn
tul
aag
rahul
mahar
honge
##jee
##dhyalay
##os
bhartee
nid
patni
vidhansabha
##wai
kanoon
bhashaa
med
##hete
sm
paanch
darj
maut
##saan
cap
angrezi
photo
jiske
sthaan
koshish
ver
##aaye
paa
sev
##oochna
van
##dic
lage
she
kehete
chalaa
saamaanya
shuk
ank
##lywood
haalanki
padhein
tam
##adhi
पह
lagaat
sarkari
##ril
mumbai
thik
##haay
##vid
lagaataar
sand
##aana
bhaag
सब
app
mauj
pradar
28
bijepi
charchaa
jila
pita
##anth
mangal
##adesh
jeet
rupye
anti
lee
करन
23
fa
##rid
##asthan
##sy
puure
##maa
maujuud
किया
यह
neeche
roj
soochna
bhej
skool
mahilaon
##गी
acch
##ahar
##veen
bazaar
ul
##yad
tahat
lagata
acchhee
dekhne
niy
##ork
ati
saj
ucch
gan
abhin
rajasthan
najar
prayaas
##ame
##baar
chit
pramukh
##pad
aarope
vijay
purush
##uli
pradaan
##shal
##apurn
vyapaar
##टी
kahana
behat
mud
था
saans
##zar
##vastav
niya
##को
##ere
lagi
jile
baje
##andhan
hindu
jise
chandra
shrivastav
mahatvapurn
##tt
jaw
tik
29
dikh
keem
anub
##mir
sthit
##iyar
##vir
##dhar
pyaar
shal
##डी
31
uthaa
behatar
sawaal
koun
dek
##oor
##tober
##ाह
##aaz
##ake
off
साथ
aan
tej
june
##ith
##eed
##reme
##med
sank
##yaat
sahitya
##ahan
##aalan
bik
##shik
soch
vibhinn
##taaon
uplabdh
##fe
ker
##ोन
supreme
##yav
ny
##बर
utpaad
nikal
july
lagbhag
laabh
kahin
##pa
##sk
adhikari
amit
sankhya
##ink
res
कार
pate
##rut
ben
##thik
tan
jat
jobs
lagane
shub
bachche
##ogle
##ahal
board
मह
sud
##edan
sitambar
##ivi
##hun
##raft
tareeke
suv
kin
maanav
puja
china
##lod
paresh
##ts
##dhan
22
sangr
google
ok
##bal
##aavaran
guj
aae
arth
जान
##rodh
##aala
राज
sthan
kir
asi
agast
prasad
bollywood
prakaash
bhagwaan
share
##aajik
jain
detaa
##वी
taur
##ojan
ghatana
bri
rakhaa
punjab
maheene
cl
der
##ue
jaaegi
chut
सि
50
##riti
mutab
live
bijli
geet
##eshaa
by
rakhane
##ori
sen
##rasht
mod
andar
##shu
##hai
mur
mana
aadesh
arun
##andal
जो
saamaajik
kharid
##kariyon
div
वाल
judi
##raa
baithak
##ees
yani
cric
hameshaa
##add
kish
nyaaya
##osh
jude
tel
duusari
soshal
##aji
taaki
##mb
swat
zar
khil
saken
twit
naukari
##tan
##aka
dard
tre
anand
usee
##ory
vidha
pratis
kendriya
samachar
##for
air
##abh
##मी
##ence
oktober
##indagi
il
lekh
doctor
bag
rahata
mutabik
अपन
paris
##yr
th
##ushti
dekhen
ashok
##fal
##akh
kavita
##ies
chuke
##rol
manoj
jaruri
ladki
peeche
banaaya
##udhar
##cer
thim
dena
गया
##thi
clic
##mati
itihaas
##yata
##aant
sthap
##वि
milane
##eshan
hari
##sp
kashmir
hokar
chaat
suvid
jaanate
rahete
umr
hetu
##ru
khul
jarurat
stri
safalataa
bul
cur
hatya
put
##vat
rajeev
anum
treep
pasand
##शन
verma
indi
vyav
pariv
##yam
je
vis
##alon
##isin
itnaa
amb
des
ah
aavedan
lal
giraft
gang
भार
##gery
medisin
met
treepathi
khabaren
data
screen
##chaan
brah
bhat
##mon
##ave
##je
ra
##भी
##raj
##urve
surgery
##ोर
##ाव
##avan
khaa
fir
anubhav
ghante
##rapati
##akshit
##सत
gad
100
##olan
jh
karmchaar
likhaa
downlod
kaarya
nirdesh
##chak
parameshwar
शर
vyavastha
aarthik
maamla
khub
##kaal
bur
paksh
prasha
bhad
##ance
virodh
sahyog
##tam
##be
vidh
##ashit
##ानी
##inik
kariyar
visha
som
vast
##baaj
giraftaar
##वार
mash
beti
gro
shukla
##bad
pratishat
##lan
jawaab
##hathan
badh
##hid
##udhary
tath
##gaar
bhavish
sake
khaane
ali
##ako
nag
vishay
doston
बह
aspat
##uddhi
##chiv
chhattis
tii
##दा
samart
jyo
chukaa
##sion
port
baaten
upaay
chak
sanghathan
##andh
vidhayak
##वर
uth
aapane
choudhary
land
match
prakashit
##iyan
shalya
##mad
sangh
ayog
cham
pank
##yaad
comput
cricket
पा
rish
niti
madh
apad
vakt
ghosh
nayaa
khush
comm
vaas
kishor
##hanu
aate
aata
##िला
fr
dhi
##erman
##alaa
##aale
krish
vaar
star
guru
##agree
shah
card
तर
बाद
avasar
pahchaan
daa
hasil
ath
op
vivaad
जी
ilaa
krishna
##asee
chalate
##sal
dig
dub
##eshi
##dit
colle
##park
chuki
2016
##anik
##hakon
##ble
bay
jald
chote
##cial
saamagree
##िग
faisla
##gl
yojit
##ld
##दश
##िश
##anj
yoga
##ary
sut
raashtrapati
##kee
manush
अध
2019
raksha
##रो
sy
gol
ay
ummidavaar
##aati
ele
lagaaya
rok
gujarat
sena
khatm
pary
jim
##unt
bani
big
##oh
##wat
saare
##achan
baari
##araj
videsh
vikalp
ik
had
pradarshan
mak
amar
##asy
##abi
pancha
jagat
sanst
rat
prabhaav
thak
##oda
##tain
aash
##ाज
german
lete
##mu
lakhanu
aakar
mata
कहा
cancer
तक
hamaara
##mer
mauke
##khand
gari
curent
maukey
##alth
vishwaas
दर
##ambh
rahegaa
choti
upi
##du
40
##int
bayaan
##ाइ
##buk
ksha
##yukt
kary
##aye
meh
##12
ish
##aaran
mai
shu
ghoshnaa
##ithi
##yana
majb
##fa
jeev
sadsy
kuk
##ushi
suvidha
daksh
##ashi
dham
galat
duk
aspataal
##hata
chhattisgarh
suchi
fase
achche
sudhaar
fal
abhiyaan
##ital
samsk
##riy
##डा
##uman
nikaal
baith
usase
gramin
kahan
35
paise
apadet
##yaapan
aati
##met
chaatr
shikshak
##ban
link
yon
##kil
karr
antim
ant
##kum
march
pust
rag
##aayee
##ili
hataa
##uon
##mik
devi
tip
##adon
aadmi
##ten
fasebuk
kaaryakar
majboot
##akshan
prashn
stesan
tech
shankar
##rity
##ac
tur
लोग
deshon
##charya
mi
fis
sampad
shaayad
dv
tod
aal
sari
aatank
##hari
jaisaa
upaadh
mahan
adhikariyon
samud
gop
shakti
##मान
minute
note
cont
jod
dekhte
sampark
##andhit
##dev
सी
##artan
##vaad
##wer
##net
##jal
sansad
hamane
##work
sammaan
वर
you
anu
ilaaj
##asal
उप
##जन
chale
##rashtriya
seem
spe
मन
bhavishya
behad
varg
##chan
##aayat
pahunche
tay
karrwai
vaa
computer
##ivedi
##rika
lamb
##puri
sangeet
email
##iyat
dvivedi
adhikaar
rahen
##uudh
pravesh
beem
##ency
haryana
pehla
buudh
sadak
yuva
gati
##kul
milakar
vishv
##sam
maat
vip
jhar
act
##wali
##aapas
##ukr
##era
magar
bhak
waapas
बी
gamb
##son
ru
joshi
##vind
##hed
padaa
pran
##sak
##hakar
aayojan
prakriya
dam
##aalay
vari
gul
paar
gambhir
somvaar
##ara
pahal
mush
aur
jav
##ahari
##sik
kami
sik
raja
जन
##तरी
yatri
##ese
zyaad
##dhi
##ow
pashchi
milegaa
parin
agarwal
##inal
salaah
kadam
##alay
parant
kol
कमार
shat
paane
##था
april
manushya
##hel
##oos
shuukr
लग
shuukravaar
deepak
vaise
sambandhi
prof
test
patrakar
sambhav
##sit
##ney
surakshit
raajnneetik
sundar
या
थी
सिह
kr
##bo
##tii
##phone
##we
hissaa
kisaanon
day
doll
chahta
##akhand
##hay
##utam
tumh
##eshak
##ries
kukies
gen
fe
##antar
samiti
saaf
जिस
बार
darshan
kisaan
gane
jaisi
network
rahati
##so
nyaayalay
internet
##कत
##ms
hit
nuk
likh
gautam
##ाग
bhoom
उनह
##anjan
##tit
kath
##nal
मिल
##सर
##air
##zal
##nath
antarrashtriya
adhya
seemaa
रप
khabaron
pakad
lagu
keemat
men
patrika
sil
piem
jarur
दख
##nel
##inem
pareshaan
बन
##hati
jariye
rajesh
paaya
sunw
rakesh
##etan
##lim
dha
##khon
mantr
baal
apar
vart
##ope
disambar
दिया
reli
##eral
bengal
##non
mor
dikhaai
##roid
pej
##arish
samoo
buudhvaar
smart
swayan
##use
dollar
##ule
##wani
##eekaran
##nay
bhee
##arning
baav
##press
##uka
mukt
karegaa
dhire
cinem
##avidhyalay
इन
kas
gat
reg
prashasan
##लो
mis
wor
anur
mushkil
dho
koh
akhil
bis
##ste
vist
##jit
shuruyaat
दी
shast
39
bhoomika
dakshin
miltaa
nand
tikat
##पी
teji
tyo
vishvavidhyalay
##him
akh
roak
jail
##nan
dip
##men
##aarat
medic
ber
bole
jil
upachaar
anup
chaal
रहा
sthaneey
fisadi
कछ
##uhan
banaae
shanivaar
##कि
maarg
mangalvaar
##ogi
dalit
mahas
channel
purna
kapur
mantralay
htt
praj
aus
varisht
jindagi
##alia
home
jharkhand
chini
manj
parantu
andh
deepika
paidaa
aasaan
sas
agle
maus
samet
##hot
sunwaayee
sachiv
int
pratik
ravivaar
shikaayat
jaaen
aavashyaktaa
##pann
fl
lakshmi
##uun
kitna
naveen
college
##gam
prast
jor
saar
अगर
hamalaa
jammu
chh
ajay
karaane
##atam
##yaari
##ba
pustak
##una
2015
##yap
hindust
##uni
badl
##jha
##taav
##jood
padon
bac
##avat
patrkaar
sinha
unase
mail
dush
free
uddesh
##ational
itani
rai
uj
jaaenge
##gy
##atha
##arth
##anand
##adh
patel
rohit
ins
##mes
2014
uttarakhand
##qu
parist
##ench
lat
दश
badlaav
logo
##shek
athwa
##ansh
आज
##app
##ौर
vyaktigat
paisa
rajendra
pratham
baavjood
##sabhaa
gur
##रम
viral
vive
navambar
लक
chaahe
jiskaa
janvari
poo
loksabhaa
baba
nuksaan
##pl
##aktaa
chud
fi
yogi
##जा
##fi
दो
kaal
##12veen
बात
badhaa
baad12veen
##aalat
##vik
detii
line
manch
nijee
tabhi
मो
pahunchaa
##dey
अब
##ushal
taar
##po
##ashtra
sabandhit
##low
रही
eur
samooh
web
vivaah
khoj
##khar
puras
##aagat
parinaam
pit
##book
##ोल
nirnay
कह
islam
easy
maah
ter
vartmaan
sibi
##ond
gend
samskruti
shail
jati
chouhan
asar
cinema
##gyan
##chha
paristhiti
##aron
##ama
हए
##ip
beemaari
learning
health
##tha
चाह
पी
vy
than
aatm
siem
face
vishw
bin
##aaron
mantra
bete
fo
##ement
jaakar
anek
##ares
बच
kumar
laut
bahan
tivi
shand
##im
narayan
vot
##ाना
हर
##ाई
pratap
upaadhyaay
aath
padataa
##daan
भारत
khol
sukh
डॉ
##far
satta
aust
पहल
##chay
indian
what
samarthan
##aatkaar
sush
दिन
##esti
alok
##gyanik
mon
##fic
##go
sav
jameen
disha
##amin
##uda
##ple
inhen
##vaa
patna
jap
kaan
bharti
अपनी
shandaar
कोई
##riday
bilkul
yug
45
muslim
विश
##dhaan
thana
prayek
##vya
parv
andolan
pen
putr
kala
##chana
karyaalay
##vaj
pathak
##िख
doodh
paalan
kahi
cor
##patti
netaaon
kaaro
yuddh
##baad
prach
##चार
ghayal
press
33
जब
##ump
panchayat
किसी
model
bu
##havi
vidhi
ranjan
##itra
group
maid
charan
mohan
thakur
saad
maz
sanyukt
fail
##asha
##anti
jaagr
##nagar
maharashtra
general
noti
lam
करत
parishad
nadi
kharch
##यक
maansik
maatr
top
bhug
prabhav
##tav
dekar
tele
##din
world
##िप
वह
##ij
ekad
prachaar
mahasoos
jamaa
atirik
my
prastaav
inke
लकिन
sangrah
atirikt
adaalat
##ogy
##eekaar
##ill
##arsh
baan
##cheet
matlab
chad
krip
oon
199
naar
karaayaa
gaur
tyohaar
baatcheet
##tive
bhoo
##ाप
##rash
##sc
aab
mausam
antargat
bajet
aksar
austr
bananaa
munh
rit
anj
lenaa
book
vivek
bill
story
hriday
kerala
insaan
##ved
पल
ashish
##kaash
##kosh
kitaa
upast
##urvedi
aakhir
##सट
khaanaa
##cal
chaturvedi
##ghat
##ishth
medical
सप
tippan
chup
2013
##form
prabhavit
##haran
android
500
petrol
raf
rahegi
garm
##pt
aank
bhopal
dekhakar
##krit
##viir
##aayak
ksham
usamen
##heen
kitaab
doos
drushti
sabit
samaar
##ster
baha
मा
aaropee
mari
taiyaari
pankaj
ravi
##min
pandit
abhinay
samaaroh
satya
kara
##mohan
##uth
prishth
##urti
##adan
mrity
mah
doosraa
##pati
py
time
mani
shahid
bit
##kal
##ents
sec
kripaya
##arch
vaigyanik
ej
pre
rajyon
aaye
az
daan
nivesh
sul
tasviir
facebook
denge
रख
rakhte
seven
mauka
##ass
##vaas
##aavdhaan
parivartan
sweekaar
sax
60
##ws
pap
##ding
##hammad
paath
nat
hast
kur
lokap
spasht
32
##hre
vigyaapan
##तम
milegi
##bat
nazar
haad
sampadak
phaay
000
##iki
garib
ilaake
chiz
bhoj
mir
videshi
french
kshetron
kohli
anumati
hard
उत
dus
upd
##aahi
maatra
vaahan
swaagat
sambhaav
##tak
mahaan
shailendra
##दध
chaatro
afares
sabha
##योग
baalo
banaai
surya
lagaae
nyaay
sthapit
puraskaar
fol
elaha
कल
pri
##vidhan
निर
regist
prashik
sandesh
##chand
site
haar
गई
##षट
intj
darasal
##yari
lakshya
hy
ruk
mandal
गर
##chai
##ोज
exam
##achaa
karo
shanti
nivasee
uni
sanch
raahat
barish
gor
puraane
##ura
##ulk
policy
shren
##aayi
##aja
kilo
##bhi
pashchim
नि
##aayta
filmon
##karon
##ranti
kavi
##मर
raashtra
##मन
अधिक
##ishan
moti
all
rojgaar
vyavs
##ria
twitor
sahaayta
tran
paryaavaran
bheetar
surendra
##erjee
trek
road
shabdon
kund
34
bhoomi
##elu
tamaam
khushi
karmchaariyon
sandi
urja
बि
##ww
thodaa
suresh
niyam
##uvaar
samvidhan
milti
badhaane
meg
##shat
##utt
mohammad
##pit
samvaad
##janon
krishi
phen
pub
rakhen
market
yuvak
guuru
##jon
##nes
##ike
jaldi
##ोक
phaayde
aah
jaye
##pradesh
captain
swami
uddeshy
jisaki
##ukta
tips
tulana
सव
gharelu
##don
guuruuvaar
##ris
special
##ect
##rav
hair
शरी
##ोट
rajput
##ras
aasaani
salmaan
कप
prer
##aanak
होन
parampar
##hika
##auti
are
achaanak
foot
faisle
shekhar
##hiya
samiksha
##esi
radi
##xt
uts
unako
chayan
super
##iyoj
comment
madhyapradesh
spanish
saamana
farvari
mano
कया
बल
##aaen
daawa
##jie
baithe
##indra
##kumaar
pravaktaa
kitne
lekhak
nird
bhojan
sys
priv
manish
sanj
##yaam
##ude
##ware
aaw
tanaav
sn
tasvir
adhyayan
##deep
ku
सकत
saansad
samme
varshon
##20
##शी
bhu
lut
jyotish
##tiyaan
##ces
##dhani
##nataka
kshamta
ital
blo
dan
ju
kun
सच
priyan
turant
yac
##orn
कष
##inid
sty
kid
##taah
sanghar
##ula
aadhaarit
elect
##fer
laun
karnataka
poocha
chehre
##aaja
बना
rachana
kerani
power
##jiye
gopal
rajdhani
tasviren
vaad
box
samaan
##ness
दन
jaayegaa
adi
companiyon
sajaa
vetan
system
saptaah
##vak
##manshu
##hyat
bataate
vishl
tir
##ritv
36
bihari
suk
##kat
##odhit
mahesh
mulaak
vruddhi
##shav
bet
rakhi
मद
baap
pariyoj
relies
kintu
##eshth
##amp
aadhi
beh
mulaakaat
www
twachaa
55
##enn
prastut
ris
saxena
degr
सरकार
rachanaa
vidhyalay
##skar
shubh
sthapana
##count
##eez
बता
##oni
समय
ir
##aadhi
degree
netritv
priyanka
##thee
vij
khadey
nit
shastri
sau
##may
##ology
ped
##per
katha
vimaan
shashan
jinhen
##यर
##हर
sidhe
लोगो
ramesh
##medaari
दिल
ge
##aank
vyavsaay
##asw
paryat
padhane
सट
##shay
vitt
del
##tachar
nigam
sharaab
sangharsh
lit
##bandhan
sikh
arab
bro
##ingh
##ann
जाए
##aaratmak
vivaran
peedit
vaat
aai
agency
jaane
life
sammelan
##yu
banaakar
cese
mach
bak
##िका
##ress
sheer
ech
dast
chintaa
सो
karegi
kharaab
##adu
express
wat
सथ
namak
##iksh
out
udyog
atal
aty
##hataa
काम
sibiai
gaiyr
pra
dharmik
prabandhan
push
chali
##oi
samaapt
ravat
galati
ake
kavit
pahan
saaj
saun
mand
sahab
yatriyon
goli
kaarobaar
baaki
आर
nim
##atar
##hri
##dohi
जात
बहत
##vie
##stra
##वन
##all
thodi
सवा
##able
42
khate
vishleshan
agni
manor
pul
diwali
##lar
##ayak
##ayal
hathi
68
chaut
jee
##tical
##ze
aarakshan
karw
pooch
##ोड
art
anuwaad
seat
rakhana
vishaal
utar
nirdhaar
pariyojna
##sun
tap
tyaa
santhaan
jeen
##pet
##door
बढ
sci
itane
##pura
##shiya
vidhyaar
##ell
akhilesh
##wad
##hayda
##poor
aparaadh
सन
tamil
viraat
phayda
##eyi
जाता
फिर
dri
sum
##anic
vinod
70
raman
jon
aawaaj
nari
तरह
rab
graa
##yas
##jp
##out
karmchaaree
hand
##mail
##kaari
hel
dhara
chune
pratiy
kendra
himanshu
ganga
tees
sim
taaja
##सथ
##ward
balle
##khaa
recorder
##my
41
##aag
kitni
kalak
##cl
परति
lokt
##ght
boli
##ef
परी
acharya
sanstha
sunil
phil
bhojpuri
abhishek
##िट
bir
बद
पार
khand
##ulon
##pana
samar
bhrash
khilaadi
##vin
maidan
laane
अर
pawan
198
ghoshit
padh
##pak
##aatak
vistaar
##udh
##ीन
##dur
mrityu
##aayein
kram
inamen
nirm
##kan
##arid
phool
aadhyat
##000
utpaadan
bheed
##कषा
##antran
dat
fran
##udio
chaahati
suj
chalane
rakt
rahenge
haa
dinesh
jhan
praveen
haalat
jaipur
##धान
##les
jad
फिल
per
vyavhaar
##hith
##has
patrakarita
abhy
##osi
wic
नाम
swaroop
samasyaon
sus
##99
##boo
ichha
सभी
aalo
prasid
sahmati
store
##ogram
##udyog
rashi
ghus
##uty
kumari
prap
dainik
##tta
khadaa
siddhar
51
aaraam
##por
form
##bharat
होता
rishte
##ans
shrenee
siton
##hs
##ular
##lt
jaaniye
over
aashaa
virendra
bhrashtachar
tatkaal
sampatti
bheja
samudaay
grah
##pah
ला
sthal
##avar
##waz
hindustan
##wein
##ganj
intjaar
kehane
bacha
##aarth
ed
jyoti
ladak
गए
gri
हि
talash
taarikh
usko
##india
kapade
##maar
ast
tis
##any
get
##utosh
bhaav
chet
##odh
puraani
मान
padhai
मौ
##hisht
aha
pahunchane
gaj
rajkumaar
prabh
01
मर
chaur
daay
##चछ
##aaree
hamale
##taur
bhawan
kej
bhugtan
musal
prod
dube
siddh
nan
maane
विक
sara
rad
gas
jet
बर
style
bjp
chikitsak
boo
37
saalon
chunauti
##colji
rakhe
maamalon
pil
##कारी
##avind
sachin
siries
virdohi
##दि
उनहोन
adit
ganesh
##aadee
##rin
jimmedaari
shradd
##za
him
ahm
swatantr
पहच
53
##shith
smartphone
vaseekaran
##ida
##ht
rachan
shyaam
with
##ashan
manaaya
चल
haathon
##hara
list
##rak
##gan
sport
diz
bhul
satr
mam
##वारा
pav
saman
##टा
##purna
##ide
##ates
techn
rahanaa
##etri
sahaayak
til
kahaan
ladaai
##lekh
jinke
pratinid
hawa
kaale
bech
साल
elahabaad
khaali
viksit
##ीड
ashutosh
parampara
avash
pade
times
करना
##जर
rel
paal
mukesh
हआ
dim
##aareerik
##ape
##हार
matdaan
shaareerik
comments
##yakram
##ico
##undar
inst
##baaji
49
digital
engl
##बी
degaa
fit
इसक
block
##was
public
masik
ghazal
jinhone
##weta
sambhaavna
chori
tathyon
cre
लगा
jagad
hanuman
##riend
abhinetri
code
gupt
lalit
##aatar
whats
##tal
परम
england
kaaryakartaaon
71
baton
garg
##py
##rishna
##ava
##ven
uk
##aasa
stud
holi
jamkar
ladakiyon
avadhi
sehat
##ॉल
gunvat
prakaa
shweta
##king
##ull
kathin
mulya
shav
##pha
##asthaa
darsha
bolaa
##iyaa
sone
ans
##bandi
portug
##ua
##asa
आपको
naaraaz
open
##hikaar
pareshaani
pareek
##fication
swatantra
##antrit
launch
##ted
sadas
2011
##nic
coun
##shee
hima
hir
mitra
##aspur
sanket
##om
prith
##aalee
om
##जय
haf
##भा
hot
ambed
upasthit
नी
##ated
lambi
sandip
##ait
##taal
letaa
tex
kadi
rath
job
सबध
saavdhaan
bharo
https
hans
wicket
##नदर
ahamed
pradeep
कारय
mudde
neend
paae
दवारा
##सल
परव
pranali
samajhane
part
bhale
best
kejari
australia
##neey
##aatmak
##ling
##aaksh
awaz
##hunik
vaarta
##inda
##lal
alam
##shnal
cri
##vyavastha
bike
kaat
sadasyon
raste
asia
house
diye
bain
aadhunik
vishn
##ong
##aaa
##aadhan
एव
##haayen
chod
this
aaz
mashin
utpaada
##hase
sapana
##amem
deepa
lagati
maalik
##bhaal
##mani
43
tarika
lakhon
goyal
samaadh
##apati
##day
wind
##ikshan
lambey
mukaab
prag
##hag
##adhar
##athbandhan
##medaar
##usti
##hath
tut
hotel
kranti
##sw
gunvattta
sansthaa
fun
सबस
manoranjan
tithi
##cs
arvind
prakruti
##kata
padi
vivi
rashifal
##garik
ky
nirv
sch
manju
naagarik
zyaadaatar
kaushal
##jar
mukaable
varan
dawa
##ाला
red
pine
elaan
##vel
purushon
safai
chalata
##uro
##metre
##lish
##lam
##adaata
kach
जर
samman
##karik
##anda
##vajanik
badhati
afasar
mehnat
tain
safar
rani
avashya
punar
europe
##गल
chunaavon
##usaar
unamem
ranvir
sol
stan
puch
deh
prasiddh
gus
vidya
samaadhaan
2010
inaki
##तन
mudd
yuj
gam
##wo
pahunchi
saarvajanik
##umi
devendra
girish
jitendra
##aadhik
##dy
piy
nishchit
trump
muft
soni
saaksh
zyaada
kut
कई
chota
udhaa
nirdhaarit
##dya
##tv
ambedkar
घर
amitabh
prashikshan
pratiyog
niyamit
##ral
shulk
vitamin
aajkal
soft
lokapriy
##aiya
अल
##िम
premi
##waron
mic
haan
##zil
portal
sansar
plus
udhaaharan
cab
vaaj
id
pratib
saur
बा
manag
##apar
##िता
##asurat
yu
##amein
africa
follow
behtar
##vaan
kaaryon
वो
daam
pareekshan
80
manyata
kejariwal
mahil
god
##gon
##essi
anant
dijal
उनक
chudaai
##eli
neshnal
sudhir
akhbaar
play
chop
59
bhari
##cess
swatantraaa
chitra
mot
behtareen
limit
jaanane
fat
yogya
##यम
##ारा
aut
परस
सकता
चिक
##abhi
himachal
dukh
##vish
##thiyon
##aratri
sagar
technology
rokane
##uf
pin
सह
khadi
##dul
phy
2012
##a¤
##tavik
kalpana
saathi
gativid
yun
pm
##haraa
##rial
kore
dwi
फिलम
ikai
naveenatam
nil
pathar
vaastavik
arthath
lakshan
##yavad
yogadan
shikshamit
bachaa
##जञ
quij
ekat
dikshit
##षा
##कल
ullekh
saral
##hab
halaat
portugali
aatankwaad
##prad
##udhi
siddharth
intern
aakhri
ummidavaaron
##uddha
aasap
टी
bhan
##mand
##ishchit
##कट
##yadi
dosha
raghav
pradoo
bachaane
gaadi
how
rus
यहा
maas
38
sansh
chhi
aasapaas
prithvi
poor
dak
nirmaataa
kaksha
aurat
wed
dasha
##dr
vaap
meter
daak
pension
shikaar
##ner
chopra
##amar
offis
amrit
brahman
philhal
kolkata
pach
हई
chil
assam
register
##akshi
##naayen
ladke
zarurat
muddon
math
kavy
science
टर
pair
##eti
utt
dekhnaa
italvi
anumaan
##ob
your
##cket
grahan
nepal
proj
##tics
a¤
nayi
hor
isti
dharti
##ritik
likhe
##sor
##karm
gale
suz
rs
##लय
cal
hak
teach
dabaav
piyush
bhatta
hain
nidhan
चिकित
197
bahadur
##tik
##she
suna
aravind
##odhan
##vit
dekhi
doshi
##lu
ना
mrit
suraj
शिक
##lip
##dha
##vig
jayanti
kuldeep
##षण
gold
chaan
maheen
hisse
nath
taknee
paanaa
sanchaalan
daud
aadhikarik
nitish
actress
##su
##ineer
##krishna
ayurve
पड
भर
jisane
vaajap
##raman
arya
vrish
kalyaan
tathy
chhap
tisare
zindagi
huye
vaajapeyi
##rot
##ghaat
niyantran
##ukti
bahu
##maana
radio
ranneeti
##ons
indust
होगा
produ
naak
program
arj
##rah
##tihaas
##prak
मख
##van
khubasurat
vidy
##cle
khin
abhinayta
akshay
aapse
pisi
sammanit
##mariyon
भारती
guzar
##avish
qar
अभ
कस
chhut
dhanyavad
jawan
avai
padegaa
##aneey
sunishchit
trans
eng
##ाली
##tet
09
shodh
vitaran
paristhitiki
yuvaaon
##reey
mahatma
##hesh
mudra
mahilaayein
##gaj
varshiya
jangal
##haul
dizin
##ks
chu
uchit
ityadi
##tihaasik
gharon
##दन
kamare
aalochana
tumhaare
##andi
check
jinamein
inkaa
baccha
milte
bimariyon
paper
sug
sushant
kilometre
mishan
samjha
commun
akaash
chhot
maahaul
gahar
पढ
shaharon
prakaashan
bra
class
utaar
##chasp
sher
wedding
dopah
dopaher
##alpur
##bu
##ikaran
avatar
bachapan
chhath
लकर
ser
atul
tulsi
ree
sambodhit
niraj
aitihaasik
krishn
lu
chaatra
garmi
pratyaa
##ther
##engi
##oge
kaaryakarta
jitna
##ason
grih
ling
limited
##chon
micro
hinsa
lagaai
kosh
##asia
पलिस
##दार
##ins
##vey
जग
मार
##hru
सस
##ult
final
परा
72
gum
दिलली
##नाव
##rup
international
##haal
kanpur
suzav
##ens
yojanaon
##ings
khulaasa
dhak
duuri
कयो
vastav
daw
aazaadee
saakshaatkaar
##ineering
##ege
prakritik
##तव
##ube
real
avaidh
lagate
##alan
buj
awaas
##adhikaar
sheersh
##agan
tippanee
sampann
##atti
sanjeev
dimag
jansan
ishwar
lekhan
85
shant
##eekshak
badhane
takanic
dukaan
##bhut
pratisht
project
hem
sind
##यार
samved
parichay
pratimaa
copy
praath
बचच
city
shikshakon
##bhav
##kshan
nad
prerana
saurabh
haadase
jas
##ograp
ayo
##कस
jaj
praathmik
madan
agnihot
survey
##ino
like
vichaaron
##yakala
dalon
##धार
vil
pratyaashee
##land
mujff
hamase
dutt
beete
shivaraj
जस
bharaa
##ilit
naye
rasta
safed
sham
##cing
bus
shoot
takat
aaine
zarur
loktantr
##chaat
अव
सत
aatanki
ayodhya
nal
##एस
hisaab
makaan
##hadhi
dot
jodi
nehru
paryaton
yachika
##रीय
pracheen
file
gita
teenon
maanate
##mein
chhavi
##path
chaay
sankat
tumhen
pard
##mun
ruchi
gorakh
pratiyogita
bachchan
##adem
gathbandhan
##ury
chandr
brij
kheti
##ator
##ping
##jor
veen
dikhaaya
sakriy
maharaj
डा
udhar
keshav
prar
cheez
sutron
saan
##nadu
tainaat
samast
##diat
padaarth
master
jhat
khun
thane
##naak
phi
##con
mukti
sakenge
##undarya
kirti
##धी
ya
90
tamilnadu
adbhut
aana
cell
arop
inkaar
varanasi
##िवार
sep
saajha
indore
##vaah
##vai
##cts
##इट
पतर
urdu
cy
ejineering
mitti
hang
kow
sports
maho
mag
##lik
metro
मझ
ghi
kowshik
hathiyaar
bataane
jimmedaar
लड
chandi
patrakaron
state
kahaniyaan
camera
bachaav
utpann
pack
gre
unit
priya
delhi
maananaa
##aamee
##waadee
gaay
##viya
apan
2009
nideshak
##amanya
agnihotri
nas
##ii
##hoor
ob
raily
nibhaa
khule
##rom
karav
sip
अपना
##tions
mamata
rese
vyakt
##shar
badhai
cone
val
mashhoor
khur
sandar
honi
चिकितसा
##rics
##aasat
khet
parisar
raheen
bura
vo
##कति
##orth
sabak
buddha
set
ansh
##hani
takneekee
yujar
##hok
pant
##phic
##wala
##gen
kanya
vajan
##50
##veer
##ubar
gmail
##atish
जल
bel
##बा
kot
chunavi
##vigyaan
##aanee
champi
उसक
##bir
##wahi
praty
##tishk
chaurasia
tuk
jetali
upab
##load
pol
lah
bharosa
gaurav
navan
bajaay
skulon
majab
aakaar
prabhu
garbh
chandan
adarsh
asli
likhi
kamjor
किस
##bil
lab
##ukon
##yanath
vie
अचछ
kirdaar
##ikon
plan
sandarbh
gyan
naamak
46
करता
goa
##anka
japan
##pro
gaaya
महिला
auto
shani
खबर
cit
##पा
##wati
prabhar
kari
chalaane
shaastra
ric
##cus
dashak
lagaakar
ajit
janap
##aaq
badale
vittiya
lahari
chaiye
lenge
aadat
हा
##धन
chizon
##icourt
##hash
jaayenge
aatma
hoicourt
##inium
panj
manmohan
opar
apek
mastishk
notification
shaks
badalane
upabhok
chor
nirmal
kand
bhaavana
##raaj
aapurti
##asham
##राम
bahari
##yi
mang
ing
aw
##adhikari
nhi
prabhaat
praan
rakhata
tantra
vividh
जया
dhang
##fr
gav
##aayu
paryaay
##usht
पास
##ardhan
software
##die
##adaa
deepawali
आन
toh
alp
marij
निक
apil
गो
filmein
nis
##mas
sonia
aand
saadh
##dies
sapa
mant
vachan
but
##ative
ann
##esas
##chate
kanoonee
prarambh
##ayik
vyang
lahariya
sakasham
maaf
mujhase
rajyapal
##eem
kamai
##patr
prapti
anuv
notebandi
baadh
vs
ankhon
durghat
profile
##ode
परदश
kinare
##eesh
viruddh
##sari
bhabhi
##tein
padhaa
jaad
##angi
meena
##naon
माम
see
hardik
##rishy
##चा
asian
##ical
##tern
vipaksh
होती
dekhe
trephic
##मत
##sher
##sat
भारतीय
rige
kaala
##kiyaan
##baal
chhodkar
sel
tham
likhane
vand
prabharee
vaish
mool
kaarywahi
dusron
jais
pradooshan
uthaaya
##sex
##yuu
force
वय
iran
##uddin
miss
##tel
rafel
##ero
52
soo
196
##alji
daure
##gn
sangrakshan
lalu
teri
sakaaratmak
##वान
haq
##shata
hawai
abdul
##aadiyon
##aasi
yout
##urse
gover
शरमा
rigelt
jagadish
vidyut
baraam
##nima
bacchee
fan
##eh
##alian
http
वाली
pediat
isko
luk
siddhan
jeetne
56
anuraag
rem
2008
bhay
kidani
tatv
##cr
आई
sanskaar
niyukti
ret
##ora
janmdin
kashyap
bod
pujan
notice
peeth
filmi
चाहिए
##umat
oncolji
##fo
kriya
##lect
daalaa
##ooth
bhed
तथा
300
bhaskar
##anga
election
parijanon
##nam
atyant
hawaii
2018j
muq
pavitra
laagat
vikram
194
maare
कारण
##ca
##ual
govern
update
gil
##warik
sainik
mein
upkaran
##रण
##khen
cat
##aayenge
diare
##nit
pushp
##hare
dekhie
paha
work
फर
##endu
lambii
khatra
ep
desk
justi
sharan
taap
##yaab
savaar
vastu
##ert
rape
##ateg
jaayegi
roman
61
grammer
aale
vaidic
manaa
##फी
jabard
gathan
##rajya
shram
riv
hafte
samaaja
karai
nirvachan
samaajawaadee
##dow
##darshan
dipti
##ense
korea
jilon
praudyog
maujuuda
dand
siv
karan
bachane
##uchit
48
pratibha
pandey
bangl
tere
##ukool
kapil
##vice
balaatkaar
अस
##prakash
chenn
saik
kharidne
jisame
laap
poochta
##laah
adityanath
est
##aria
##ghaatan
kalam
download
jaagran
##astha
cheharaa
sapt
08
##erson
fund
pis
vat
##ray
bhim
udghaatan
karvaa
tot
##xi
##amil
hajaaron
bahes
prasar
pag
राम
that
##टन
saundarya
such
##acharya
##kim
saty
meet
##ous
चनाव
##lig
##iness
##aridabad
padak
##bhed
dhoop
जिन
chennai
ekatra
bun
istipha
हमार
00
betaa
prasann
##ament
yam
idhar
##ahatya
veer
batch
कागर
divya
kaali
darshakon
##istani
##hadi
##aking
karj
##ange
baraa
karn
buree
dwitiya
sankalp
ce
##jid
baraabar
kail
##anon
##ottam
andhra
##यी
mahal
aapatti
याद
rabindra
##ilie
##aaji
dastave
##ॉर
##janak
lap
chamak
prakat
murti
prot
##kara
motor
दौर
जानकारी
chaaron
plas
##ov
sochaa
jabardast
vyapak
hun
##तान
isiilie
##ोरट
##tes
park
ऐस
bam
santosh
##pic
beuro
##cap
paryaaykosh
ghot
bijness
##lon
नव
##edaar
kahata
ande
गा
jinka
ballebaaj
ilaakon
##ender
amir
##uta
jang
rud
export
feet
champion
आपक
ol
ranchi
तम
sarvsher
##zaa
movie
bataai
keemton
tyaagi
##yik
shil
nirantar
ekadshi
papa
##hanaa
##tra
mahendra
kamal
sarvshereshth
whatsapp
adhyak
##hoort
industry
tad
vaishvik
लख
hame
sabko
masjid
shuddh
bre
daav
75
सबधित
vyas
feb
det
##oday
##zor
cabin
aushadhi
sharad
##ml
vidhaan
सफ
##बल
condi
##ीर
##यन
##abhaav
##ulice
pratir
कागरस
vidhyaarthee
giravat
samudr
उनकी
##lia
चौ
ip
badm
gorakhpur
अनय
atah
ladane
samas
cr
##ataaon
sl
let
आग
muhoort
first
sanskrit
ug
lav
rupaye
litre
kumbh
haraa
lin
sook
chetavan
club
##khe
pramaan
dul
ton
##डर
graahakon
whi
mahav
shabdkosh
##ats
##ayam
poornima
##ph
gaji
nirdeshon
##endar
bansal
खल
##sity
##top
ghatnaon
baraamad
vaataavaran
##angik
sanskaran
paatr
jun
sril
samr
wal
khilaadiyon
aresas
##odi
खान
praar
bikri
राजय
degi
parmaan
kon
bhatnagar
gov
##hiyaan
##leel
fate
99
allaah
sarvo
दिख
raav
लिख
search
##ोनो
वरष
##aram
kahe
prajnan
##ging
sahu
samajha
##ire
diplo
rathore
gud
sto
banakar
##lling
##natik
##taree
acount
nishaanaa
परत
agr
gazal
94
kathith
lic
banaate
sakht
pakistani
chetavanee
shash
badhate
##hya
जीवन
sunakar
sakaa
navaratri
praudyogiki
paryaapt
ashleel
घट
93
मज
jaiswal
aahaar
date
hare
rajnatik
##यान
granth
tag
जयादा
atm
##ain
##essor
##धा
##aansee
business
smriti
##यकति
aayu
sanchal
nidhi
shrin
pie
##ading
janapad
farji
##angan
##दान
badmaash
billi
44
sheet
परश
dushman
laha
eks
plat
##hrukh
shooting
praat
57
अगरजी
hongi
##adhan
parmaanu
paata
phul
uniwar
gaurat
aagaamee
दोनो
ghoom
amal
##ark
anivaar
qaraar
drug
vaastu
##shah
gauratlab
paak
abhiv
fin
banaaye
लिया
##वाल
rojaanaa
##now
##asiy
asa
adhiktar
vyaktiyon
anivaary
mudda
taj
samarpit
karun
विशव
##tej
bali
gaanvon
likhit
pratibandh
poshan
girl
vishnu
swarg
saikadon
##rite
agree
विभ
landan
##ikr
##jeta
madhum
aropiyon
##chakar
aadhyatm
##maatr
बीच
##oz
yak
##anyaas
bainkon
परि
suman
##kies
subhash
brahm
दव
sunne
##krithik
mitron
##bhaav
latest
agali
harish
##ship
beb
jeevan
noida
##मल
mrid
beg
##den
anusandhan
खिला
espi
##qt
##ansheel
paap
from
sabhy
rekha
jaanata
sarvocch
kshetreey
##sti
satyendra
daakhil
rachanaakaar
##com
tark
tumhaari
hairaan
niyamon
ghum
##utane
saanskrithik
raipur
kesari
##शा
jiesti
sanghathanon
##akhan
udai
##cke
##काश
##लब
ingine
aatmahatya
shalini
chakra
uniwarsity
khaadya
babu
sector
upanyaas
aankhon
bilaspur
##bari
##ler
##ker
##anthi
sthanon
naab
रो
ahmed
बताया
not
pathakon
rin
hyder
shart
leti
aadha
adhyakshata
sri
liv
##भाव
jaahir
buddhi
samprad
ravan
vaapasi
कषतर
vishisht
maury
if
adhikansh
hol
##वास
antariksh
gaanaa
##baa
##itri
आव
laab
kush
dhoni
##वाद
##faan
pla
control
mem
दस
nun
kailash
##huk
शाम
key
bhaashan
##urd
dance
##aayam
pushti
utpaadon
##akya
##sted
ekta
आस
bhand
kaant
वयकति
lakshith
od
uptet
hyderabad
shikha
bhare
##ships
dinaank
diploma
sidhaa
jawahar
apr
bhakt
vyangy
body
aid
aabaadi
##tr
raah
##yoj
vishyon
एस
##ution
jute
taal
said
193
jaya
47
mukhyalay
role
cli
##asim
dher
##ahe
commers
##och
adhinium
##ादी
sv
avkaash
##aanti
purvi
अग
unn
rank
halkaa
mahak
ऐसा
rakhkar
agra
paras
fee
pankti
research
eem
##atein
##jaat
cameti
##ories
##acy
lihaa
fasal
naukar
ward
##cil
##ातर
ubhar
bud
audio
mukherjee
brand
##ots
##ont
parmaar
panch
plastic
purana
shashi
adiv
07
##sachiv
##itha
kyo
paud
vrik
happ
##shir
justise
parvat
##lit
baant
##diyon
##िज
##lease
76
graminon
##हित
##aataaon
bes
judaa
##gya
##swar
pratikriya
javed
pashchaat
##करम
padaadhi
partner
vijeta
jaat
umesh
gin
chanakya
kahati
sanchalit
jaani
upay
akele
sharm
dekhbhaal
##thak
##itv
मोदी
akbar
400
होगी
sils
##ubh
professor
coach
akhtar
vimal
मत
tem
##arshan
##षय
badla
sapane
ranj
##tech
kamaal
privacy
04
##natak
aaie
##ating
proble
sipaahi
##gad
gher
##karta
shishu
ausat
dhamkee
##वल
nirik
##haiya
मरी
dhund
avish
समझ
kaisaa
kyun
kalakaar
simit
shahrukh
coo
##fti
##jen
nirbhar
##pra
##ishi
##hyath
poochtacha
sijan
पत
पट
##pay
game
ekadam
mahasachiv
बड
shapath
##eekat
naatak
##शि
swabhaav
##aavat
##vaale
faraar
arjuna
##lee
vaarshik
love
91
##एम
sampoor
bos
mid
pakshi
jaadu
दनिया
raak
##habad
great
prart
niyukt
nipat
jeeta
chha
berth
ambani
bind
##opal
chap
vaak
gard
strot
##arif
ensi
maaloom
##iyo
vash
second
##let
hakeekat
nikat
ekmaatr
##dhish
kavitaayen
sweek
mridul
sain
kismat
भा
zikr
dharna
##hol
jataa
posted
shuruu
pashchimi
cabinet
priy
ij
##gb
mahavir
जाती
कभी
adivasee
chanda
##mala
##िरफ
##inder
##urg
##षठ
##ern
aaaz
##ars
jitani
peedi
aaazaad
ladkiyaan
nus
sambandhon
##khyak
##rab
cart
##if
bharpoor
arthvyavastha
score
##oga
school
privet
kushal
electric
khaataa
vyavsaayik
##aami
rochak
##uthi
##vedi
pattern
alert
shikhar
##षटरीय
musk
##adesi
buk
kor
nirikshan
satish
shakha
##keey
##adun
dhaaran
##गत
##ahila
plate
##abe
terms
##पाल
##ukshet
vinay
inch
samajh
shahad
##tivi
1000
बज
##baaraa
##bon
##waja
recording
majaboor
##shaala
giri
nirdes
one
##titv
##band
sabake
famil
khaj
samaa
##ohit
##jo
naksal
unheen
rogon
aayega
sadakon
dhir
laayaa
##ghan
rupaya
samaksh
##नो
rik
morcha
shatru
pradarshit
skin
svach
bata
##ashtriya
sahaj
trainon
kattar
hero
bandhan
nyaayadhish
pramod
aantar
ven
jhatka
bhakthi
avanish
shubhak
saadhaaran
glo
pairon
वही
##vijay
head
madhu
artic
##baddh
utsav
pathan
mazdoor
पश
##singh
##asad
muqab
nikaay
sampoorn
raju
##anagar
rahim
##ksh
nikaala
##purvak
इत
chur
edit
que
##शल
khatar
badhaava
##itan
baandh
bangladesh
kese
talaak
##ियर
mukad
मध
##riyon
khulaa
##oc
##grah
basic
upyogi
gaayab
##pre
जारी
kise
shashak
green
abhyart
##ise
##sport
phe
pragati
मल
banerjee
##kin
aandolan
kaarnon
##ताओ
##sir
##lok
##taar
kang
महा
asso
idi
bav
raakhi
cro
बठ
daant
divasiy
dobaaraa
srilanka
manohar
##kot
manjuuri
maani
05
nash
aamir
##swami
##habbat
asal
abhivyak
mast
madhyamik
jur
chus
02
परो
kee
##akshar
aantarik
##mach
pashu
meer
palat
##led
##hn
roti
sunai
मिश
##urs
rasayan
##apat
shraddha
anna
cash
shay
ani
saadhe
##get
sanshodhan
##rib
dikhaane
camp
paathyakram
asafal
lagegaa
command
varna
org
06
course
asam
jhooth
##vyuu
aug
chif
bijnes
##haron
##ashankar
cites
ty
deal
shrimati
preet
bhejne
pow
##ाइल
uthaane
योग
##मद
##rapy
##ism
utana
prarthana
telug
swaraj
vidro
roy
ashan
उद
##upa
tro
kavitaaon
##vani
aalekh
beej
meerut
##waar
cookies
sona
badhata
hangaam
daalkar
##wadi
jinaki
##जार
padati
##dem
sarthak
beemaa
##vyav
##दो
sahaara
kundali
##metolji
talab
ajeeb
namakan
abhyaas
chair
vyast
pay
prin
anjaam
anurodh
चन
lagaate
##bisi
khare
chhed
##esai
mukadmaa
haz
vaani
associ
##पन
##adak
goswami
sansadeey
##charge
kus
ze
##णड
##कषण
dekho
views
ankhen
british
##जञान
samvaadadaata
##vaha
##friend
namas
dikhne
confer
qamar
ragh
##arayan
aayi
prerit
kiijie
सख
cos
porn
##bet
bhagat
guna
anush
##मो
padukon
oly
rosh
union
vaid
didi
बस
prayaason
समाज
chakkar
##anghan
pandya
दौरान
##pary
गल
69
pichhali
chot
shop
daf
vakil
registerd
atithi
vyaktitv
hataane
##pol
now
andaaj
##इन
chid
imran
english
वया
tarun
होत
gatividhiyon
padm
nikalne
islamic
##करण
indira
saptami
teacher
ली
bhadak
maarane
yogyata
govind
yaj
khushboo
hil
jagahon
avin
sadhana
sanchaar
paari
bhukh
madhav
chintan
shod
paaenge
kama
riger
cle
##ery
amritsar
फल
navy
santan
samal
कोर
chammach
khilne
banataa
nidaan
maya
conditions
नय
rigerv
janaj
##agram
chijen
dilip
tuj
03
prashanth
takar
150
dehr
jhaan
roo
mujffar
ghotaale
##shwar
khy
##पता
bhadas
sarvaadhik
baitha
54
mp
नई
heart
lone
दिव
##ream
##ors
##br
##onch
shivi
chamat
##adhyaksh
फस
ain
बक
khatarnaak
acid
teesri
dehradun
fas
anok
##swaroop
dai
chuttee
वब
aamtaur
duun
2007
iz
##halaya
diarector
sadi
##चना
paariwarik
select
choda
##otion
tehs
trivedi
bolne
food
nunatam
shriram
image
चार
##afa
actor
ulanghan
bhinn
पारटी
family
##ayee
पि
aarti
musalam
hasya
##bin
chandigarh
shikshamitra
sile
jeey
intervyuu
pariwaron
bhauti
academ
रल
mahabharat
meghalaya
##ikar
takkar
sarvice
maala
footbal
परया
##mol
vaik
##oney
##िद
aegi
##haam
कॉ
तीन
shoshan
jaao
prop
basapa
shau
##रत
durga
##del
roop
##asna
phenk
##hita
##hon
##ujan
kanhaiya
khaari
batan
##aaje
khiladi
##gav
speed
karavaaya
vistrut
chikits
shaayari
sta
sansaadhan
cole
nasht
jio
mahaj
लोक
powder
yuvati
license
france
rajan
under
radd
know
##opan
milan
sevaaon
##हत
durghatana
##andan
peed
जहा
bed
##andhar
badhe
care
himmat
nikle
ghati
muqabla
##aandaar
89
arad
eff
siikh
##aiti
##mbak
snaan
##ming
pachan
##yaayein
betiyon
award
saafe
her
britain
sasur
jhil
##rudh
##पत
siikhnaa
haldi
nap
##ापत
chaalak
195
##urthi
##ातरा
lahasun
##10
tarak
aamantrit
विकास
##avik
vaqt
paid
friend
ukt
##til
taapmaana
seo
सतर
##आई
tilak
rajas
sachai
आत
chadh
##ision
sevaayen
jhal
अफ
##बाद
##demand
sahyogi
purohit
##muk
##ruit
today
astitv
##waadi
kalege
सथित
arabi
##uly
civ
madhumeh
##ugh
vandana
पस
aroda
dang
cir
dm
eemaandaar
path
##ice
हिन
diam
shesh
उठ
##festi
good
step
much
naz
##teners
ther
jaananaa
अम
happy
graahak
tour
nariyal
jaraa
aruna
tend
भग
##ajeet
dhanbad
sahamat
aadhyatmik
rose
durg
##pun
hastakshar
devataaon
lan
##sain
##tikaran
##aper
suvidhaon
copi
varsha
ren
##purv
nakaaratmak
74
##ography
pratidin
##rist
bang
utsaah
सल
badhkar
jaaengi
##utee
##eeya
jeeyo
faansee
63
पो
laapar
shayri
tuls
##gah
shrikrishna
##ayat
##iessi
वीड
comp
cartoon
tyaag
dwad
gy
aplic
lijiye
sadaa
conection
twitter
vidhyaarthiyon
halchal
kabja
prabandh
lahar
##चित
shubhakaman
2000
arts
water
65
##णी
anmol
chunki
##वस
cbi
nikaalane
नया
##waalon
nagarikon
##tia
aao
इसी
airport
##ajya
prabhavi
too
clin
have
sudhaa
##मार
वीडियो
##steble
person
ashanka
##yag
aasthaa
डी
कवि
बडी
##her
tit
##ikta
pahaad
##ful
olym
gussa
sarg
##uram
eli
##डिया
##ident
ios
bhashaaon
musalamaanon
##test
techni
vipar
##सार
ghatnaayen
karuun
##यालय
baadha
nirdeshak
##jh
rahasy
##akam
scr
marpet
youtube
daliton
susham
ganit
ujagar
laaparvaah
ago
हिदी
offic
mirch
avinaash
jankshan
swap
##antric
kabir
chhutkaar
अश
parivahan
khinch
87
##marsh
cond
##jali
kimi
dhun
ucchtam
##agement
found
##पति
pune
instagram
rana
tok
germany
कौ
##aao
##adium
oct
mile
jeene
money
chaalu
##षटर
##ikrut
##akal
अलग
desi
musalmaan
गज
kati
consteble
electron
vaayu
asif
##aba
83
rahiye
chutk
sett
अमर
moul
thand
##ikshanik
door
##वत
gendbaaj
rachanaayen
nibh
wasim
khele
avasthaa
##tey
room
##wane
sultan
anuj
udaan
shaikshanik
vimarsh
aatankiyon
niraash
maheenon
##media
##लिए
##uji
dila
##aras
rajyasabha
svachh
oparation
about
civil
machaa
jhuk
sutara
parteners
mulaayam
##andar
garibi
protsaa
tazaa
shee
##ottar
##णा
bharne
##ॉलजी
yoni
khelon
pathari
aankh
##want
payal
deb
bangal
fees
gau
abha
rep
driver
##rata
ahmedabad
ved
swarna
##ones
maasoom
parihaar
##tishaalee
##omi
##aachaar
##bhumi
jir
nandan
##rel
raaje
ankit
##avid
##ghra
##18
##shep
64
vyapaaree
ashram
dedh
preg
toorn
##wanaa
##io
kud
naitik
अक
vijyap
##chik
nashe
aapas
##bra
##antaran
jinda
adheekshak
upaadhyaksh
braj
stadium
hisson
phydemand
rishta
categ
japani
mithun
toornament
##karmi
rukh
##tiy
windos
baras
arpit
मीड
##atma
khaarij
108
यदि
##kes
colon
तब
shaktishaalee
rishton
vijaya
##sul
ayurveda
suchit
khali
jaaya
devtaa
contant
coment
ratna
##sl
##acharan
saiyr
padane
pardaa
काफी
vipareet
##shaalee
##usi
mittal
back
jatil
bloging
kaaryakram
##hakhel
tim
##haayee
सकती
kendrit
dec
2006
saro
charge
##33
##यकष
##irs
##हल
chalati
एन
##रस
subj
इला
chhutkaaraa
maichon
bahaane
majdoor
मीडिया
##wi
bhagya
bhadaas
nakshat
credit
beat
aman
shaik
82
bid
##bag
बाल
saudi
lead
##tiv
rajd
dep
rishi
##हन
dikkat
##baari
shraddhal
##khalaa
vifal
##sej
निय
##bn
##room
krupa
updates
bhargav
कान
stand
bhaiya
chandram
badhat
fishan
drishy
##ration
##imaar
##ची
copirite
उसकी
boy
##arashtriya
seen
gali
students
apat
mayawati
biimaar
##gs
abhaav
तल
samarth
roosi
range
कयोकि
seth
samanv
kaaryakramon
##unda
ओर
##tsav
bhoot
vaada
praya
पिछ
##come
pres
crime
##eld
sexi
fateh
duty
tenn
shaikshik
teesraa
##ching
gunj
ladkaa
swadesh
78
##hiksha
सामन
et
gahari
aaropon
udhya
##rian
shaad
dilachasp
shauk
sankram
##iland
##andhak
hadtaal
immun
samajhate
dhad
##ashyam
ent
##abhar
saunp
manaane
ghanashyam
ojha
drushtikon
aakarshith
ratn
##sorcing
yaheen
gut
anusuchit
दत
aaf
आद
prashas
chaturthi
nila
vidhayakon
abhinav
vriksh
stock
##वय
##iran
##istri
tennis
##sang
##chta
##कटर
##ial
##ubali
ass
##april
prashan
shrinkhalaa
muth
##riyata
vigyan
##siyat
rr
pid
##haai
##hano
##eyar
##bare
##rao
##vyavast
##shika
yakeen
kata
जाय
rakam
##sek
siten
hing
ring
neer
os
##aiv
sardaar
malviya
ravaanaa
हाथ
##haash
jiladhikari
jhag
shahari
tarif
banaata
sabhyataa
गाव
nirmit
naresh
97
chalo
##hakti
farm
banking
##bank
khyaal
##arna
asht
bant
हत
sris
73
ekal
army
camel
kholane
##dat
vaahanon
ची
las
wel
##raf
##layon
hangaamaa
yash
darjan
upasthiti
##ning
account
##वाई
नौ
vipakshi
bhautik
सद
diggaj
yojan
lig
बाह
kaid
malay
##mil
telugana
urf
kijiye
anter
semi
##ures
varnan
payalat
companiyaan
laan
jataai
ghul
पानी
partiyon
shubhakamanaayen
अत
samhita
dilaane
पक
pratinidhi
185
failaa
##ald
##hushan
jhaa
jhad
##60
level
peet
##ोजना
help
अभी
naash
आरो
##khi
swatchta
darav
##माण
##राज
feechar
karthik
braking
##anshi
##parik
raftaar
##lin
speak
dastavej
dow0
##रल
##lot
इसस
202
sahib
kone
niklaa
manipur
##yub
मामल
wes
utk
##laal
maun
milenge
cm
पता
##uttar
shaucha
##much
जञ
yachik
##unk
association
धरम
ofer
परकाश
##urity
##ajit
##atantr
takanik
dhaat
manager
dua
taan
chutkule
fark
##तो
samu
##bhaar
dress
salaahkaar
##gaanv
##chataa
aapasi
process
##gali
##ytech
silect
makar
##rad
chunaa
##enc
##ankan
tub
vivekanand
sumit
yuvaraj
##hakt
visheshgy
##amay
##shnon
2005
##ytechnic
sheeghra
karodon
khuli
franc
bulaayaa
##shankar
##mary
dweep
##सभा
##मट
ine
वहा
visp
arti
jaiprakash
goud
daalane
योजना
cardi
हिस
dwaar
blad
##upt
kundan
adwani
puche
machh
mela
bath
aasmaan
geeton
करोड
##लाई
abhivyakti
aaiye
vanade
odisha
##shahr
##aswasth
tata
article
##aswati
maaraa
ranveer
jisko
mard
##zat
puun
##ckey
nimn
##aavan
परधान
jabalpur
शिव
laaparvaahee
italian
divaa
##abdi
berthde
kaarykaal
king
banati
amaruj
##mars
bea
chip
content
women
##ailor
##मबर
physi
##uki
##ghatna
kathan
lagaaein
shayari
##car
उपयोग
##uvar
seekh
tripura
अतर
jamaane
hockey
lagaana
##aliye
harsh
ten
##aith
##avikhyath
टीम
rajasav
vashisht
dwadashi
kag
karwaane
chhodane
dhamaa
maafee
##ubhaa
##bhartiya
##wk
ayukta
sabari
senger
परिवार
##tir
उततर
##dhanik
mode
beatisi
##zoram
amarujala
##mukh
shuruuaat
next
##nish
##adaataaon
##untar
lang
bolte
marane
samrudh
charitra
sansthaaon
gaan
mizoram
राशि
##vee
chaaval
uplabdhi
wai
jaanakar
samskriti
hist
##live
barab
kahaniyon
##hia
praadhi
##ola
conference
sag
##uchana
meley
riya
dave
tehr
mummy
paramilit
##march
राय
dun
बिल
fes
##star
mug
##ota
करी
लाख
badho
##kumar
reports
tarang
daura
shit
बडा
##ाया
colector
maangi
icch
##aland
camere
isaliye
dhul
price
nikali
लाल
62
##aasiyon
social
##eessi
77
##bah
pramotion
suvidhaayen
आख
vashishtha
##ku
vijyapti
विशष
management
ano
कन
zaruri
##view
sawaalon
electronic
ritu
tomars
##pulice
सना
कश
bibisi
namaskara
saraswati
jodh
shor
karier
maithi
जाएगा
##ergy
मच
##idha
cover
परकार
paat
##payogi
खिलाफ
aish
datab
##agast
bhup
pop
##management
karyrat
वाला
haadasa
paancha
##apary
rast
##परण
##ways
communist
vishwas
##darshi
##dis
##rag
swayam
krid
tathyas
##bhug
gah
##rim
करक
##gu
hos
##relway
##apeessi
reliance
jitne
आदि
tumhaara
srijan
##rashtri
maf
apatkaal
##dwar
##upiessi
academy
paramilitar
##yarmi
jobsri
jobsrajya
jobspulice
jobsrelway
jobsapeessi
jobsupiessi
paramilitaryarmi
aashir
##purn
javaanon
##vitt
darshanavish
prakaarbharat
quijghatna
tathyasamanya
quijghatnachak
2018may
2018march
2018april
पजा
##aalak
phot
darja
upasna
##ahilaon
##xx
##udev
##वीर
will
padhate
suc
##vad
rajnath
bataur
prashasnic
tiger
motiv
##avaa
ese
garam
kota
##prab
dosti
kendron
katautee
afe
maargdarshan
समस
##rinagar
rakhti
tamb
kaayam
kartav
##urati
dayan
afair
##vaala
sardi
doctoron
sochate
##proper
##capsul
##aire
flash
ghanton
laghu
hiraasat
##ian
chandramaa
##hra
visphot
itihaash
jodhpur
मतरी
##utra
primary
faridabad
##inaa
##akarita
सार
##aayojan
baadam
##धि
bhayan
mahavi
daayar
##शवर
shashaank
##ankhel
paudhe
हल
शामिल
likhakar
##kant
##paryaavaran
visheshg
mahotsav
mritak
ramdev
gulab
atyad
gaharaai
##sung
##vigy
root
##aaton
##vyavasth
jansanchar
baadal
virus
afeyar
##patrakarita
##aparyaavaran
##parikshan
##erajya
kaamyaab
baadas
##bhugol
##tishiksha
##untararashtriya
##orthvyavastha
buland
##rashtriuntararashtriya
ejineeringmanagement
beemaswasth
##outsorcing
vigyanproper
jansancharvitt
##tishikshaoutsorcing
ejineeringmanagementpatrakarita
beemaswasthyakala
vigyanpropertishikshaoutsorcing
rajvyavasth
spi
paristhitikiyakala
samskritivigy
kridavikhyath
itihaashbhugol
##orthvyavasthaparyaavaran
rajvyavasthorthvyavasthaparyaavaran
samskritivigyankhel
itihaashbhugolbhartiya
##vision
##arthvyavast
##kerent
##ceparikshan
menkerent
paristhitikiarthvyavast
khiladicapsul
##irsrashtriuntararashtriya
takanikaparyaavaran
afeirsrashtriuntararashtriya
afairsek
afeyarceparikshan
paristhitikiarthvyavasthakhel
khiladicapsulerajya
afeirsrashtriuntararashtriyavigyaan
afeyarceparikshanusaar
2018agast
##िकी
##वरी
kaamon
matadaata
divaais
atyadhik
##कन
##polytechnic
##धिक
##डो
दसर
badpolytechnic
baadamahilaon
baadalithi
baadasnatak
##lice
vikiran
byaaj
afghan
jhel
websit
रग
kaamk
##athan
sadar
dhaan
##wanaaon
उम
##षक
factor
ratan
adaa
siya
##utan
वबसा
aaenge
dekhtaa
shubham
prastuti
malik
nalee
hollywood
chairman
##uba
##hala
इसलिए
nikaali
##likhit
##arak
tufaan
##uja
##paat
adheen
dikhe
tatkaaleen
सौ
##ताब
##maane
surk
shas
khatri
audyog
##ayana
kaun
##karmiyon
##amo
##akarta
panvar
global
roshni
##gaai
haddi
बचचो
##enti
category
sachhee
blaa
srinagar
badhotaree
##vas
##otsav
andeh
nimna
samsung
swaad
##won
साम
गण
##ds
essi
siddhant
samuhik
univ
##vaasiyon
बॉ
##sas
##ashtami
juni
chaah
चक
krantikari
milanaa
tric
gast
barf
ranjana
परापत
arpan
##भव
##वरण
aashcharya
nivas
##kedaar
bhala
##oshan
bataaen
##40
##68
nigar
jok
kanna
jaagrukta
keetan
##kartaaon
sateek
##aayan
inhone
बो
tula
indra
करम
dono
bechney
##ishu
yukt
jash
aacharan
bhushan
##nak
##iram
platform
##cri
बनान
gaharaa
विद
sansth
aarambh
##cks
##devi
bataanaa
balika
apne
ehs
ता
kedar
reeti
majaa
sonu
nigaraanee
किए
bahumat
arm
आधार
##baan
afghanistan
priti
television
##ambhik
milli
##rina
##paksh
##cip
राजनी
kute
287
praavdhaan
maanane
जड
chaatraon
nich
यादव
##uran
peshaab
##ियन
thor
bhagid
##ितर
naf
sansthaanon
central
जगह
sabji
pann
जय
navaneet
sabarimala
saavdhaanee
##vivi
saboot
aradhana
bandhu
nain
##alpik
dushkarm
sahar
लाइ
alpsan
sthir
कद
peedita
जिसम
धन
##oshi
रपय
sainya
chitrak
adhis
upabhoktaaon
##apy
##itr
puunji
mahangaai
88
adhiktam
anuvadak
rif
चर
vaikalpik
raghavendra
pher
मदद
kushi
trial
chhu
sani
khaskar
edi
sisi
##the
jodne
##ost
ansar
##tember
मरा
##lav
tehsil
order
ehsaas
##atmak
jokhim
विचार
hen
chauk
##yug
kiran
ipel
gaali
##yant
##ting
rastogi
samjhauta
base
##az
##entr
##naam
aashirwad
inv
junior
bhaawanaaon
##mum
siy
sakegaa
balak
petro
mahadev
yishu
ken
बरा
khatre
anis
58
दिए
ghoomane
आय
sita
anud
vibha
alpsankhyak
lard
bars
dog
liver
dhirendra
##ठी
##labh
utyub
bhatak
trend
likhte
##shm
war
khelaa
olympic
##dw
सकस
aatankwaadi
paati
prashaadhan
gyaapan
##apore
aswani
nayak
ullekhneey
##हम
hitesh
anyat
mishran
amav
tumne
samvedansheel
prahari
वबसाइट
rahas
##ality
##चर
sadan
सवि
##कान
rachanaaon
##anaaen
ricard
##4media
gl
##ulat
digvijay
arg
##pho
jaag
sne
भाज
madden
marijon
ranking
vyavast
sampradayik
##opa
hossain
jibi
nimnlikhit
मस
hav
ऑफ
anumaanit
kotwali
guar
##वसथा
blike
hemanth
pahalu
##sidi
रिक
vibhor
september
aankadon
oonchai
##ller
karmiyon
championships
chandrashek
##ties
bon
brands
shaq
wash
##karaar
west
इसका
color
jagmohan
santul
bharatiyon
##ior
buil
phens
sambh
governor
juj
bukamp
uttari
##apurna
##adik
इसम
vyapaariyon
boj
##avad
खद
sangra
आपकी
rishtedaar
fem
##apak
uttam
##मानय
neha
samjhaute
sunate
##mr
kheton
answer
करती
utani
parik
##waa
database
gehun
maithili
##ie
##risht
एम
keemten
cycle
सिरफ
aadhe
any
kshan
maanas
chauthe
training
aatmavish
##apal
bisisi
kedarnath
niyantrit
kumavat
##नत
##urance
lod
banate
ankal
हमारी
95
beauty
saansadon
dulhan
##food
##cium
saanp
तरी
subsc
chaati
punah
##kaaron
##mor
##edi
muha
mukhiya
imaarat
mathura
अनसार
skim
hinduon
audyogic
isro
tv
praant
##wab
sweekruti
chandrashekhar
shok
##cent
##utv
shre
minaa
saki
##aasan
कला
tatwon
problem
print
sig
poster
kark
##dhaara
shaadaab
##aanat
south
taq
neerav
bheje
aankade
##iz
##keter
समसया
tabad
nah
##डल
##res
##गढ
yantra
vaard
year
devesh
हाल
##cian
##ivaaran
protein
suut
katrina
sundarataa
आए
makasad
shish
101
##bhoot
पन
asw
रोग
##formation
खास
शादी
##bre
नर
dhokhaa
##pies
मदिर
critical
shauchalay
chalaaya
aanvik
brahmad
darbar
jagan
garv
lanbaa
thap
samajhnaa
jind
italy
##arai
##atin
ramayana
rajkeey
shradhan
aagrah
cus
paristhitiyon
bahar
tera
huin
bache
ca
speakup
##ters
98
सकल
ajmer
sasta
amavasya
epa
yugers
##very
nivaaran
saamud
gastro
##ls
mons
##टस
apeksha
बोल
samarthak
dad
shradhanjali
##samanya
inde
muthbhed
bachein
karane
khayr
tin
nipatane
आपका
east
bandar
जञान
##vijan
avast
cricketer
##vividh
shikshan
##cular
sadsyta
devangan
##eedan
fitness
likhnaa
deen
##aalion
##dari
pahaluon
adhisuchana
##api
मिला
##ambaram
jaagruk
वरत
pratishthit
epis
neelam
badalte
entry
vidyalayon
aatmavishvaas
kyoki
bott
banaaen
maharishi
##haari
nrity
nivedan
पद
vyaay
ऐसी
mohal
tali
sochane
sarvadhikaar
niche
saadhan
anukool
vyaayaam
conta
upyukt
wi
nilamb
ratnesh
vaigyanikon
##phy
##aprat
monsoon
pankh
##aval
kitab
##news
##asvi
##avy
week
##mandal
haw
insurance
kahen
##vatee
tasvee
suthar
chowk
para
garbhvatee
thar
visheshj
उनका
dada
azaad
##सथान
pichhad
vichaardhaara
##जद
manjul
kahkar
##wara
narm
##angat
kunj
click
##ishad
##vide
गरा
wair
##मतरी
suni
mau
jivit
helic
पाक
##ulkar
##jya
baithi
singapore
games
product
chidambaram
sensex
apmaan
posi
chetana
hosp
yaar
bie
samaayojan
jala
##िसट
##a¥
##df
माध
लन
भाजपा
afasaron
bhram
nishaan
basti
aakarshan
aakarshak
blogging
isra
शास
sis
##suurati
white
saathiyon
pathankot
bhejein
jaap
daftar
आम
माग
pediatric
baithkar
rate
सरव
pakadaa
##dharm
lijie
दीप
बदल
chakrav
##हास
##hadra
dahi
kannauj
##vaali
shuruaati
##ayaat
आया
helicop
भाग
praadhikaran
august
sochna
mahavidhyalay
##डियो
gopneey
balmuk
वालो
thode
mutr
##यता
##waj
sampurna
shikshamitron
steshnon
bartan
usame
अति
360
mujh
मी
109
vay
कवल
kaafi
staff
most
सफल
dusre
mans
##angal
##rate
custo
unhe
maari
##ajan
devel
funs
##agr
padaadhikari
##over
thanda
रिप
naabal
chapet
adhyaa
tippaniyon
##holji
##osic
##ardaar
adhyaaapak
pediatrics
nefr
##sitambar
##das
हजार
euralji
##thrapy
nefrolji
thorosic
hadd
markar
pratyush
information
visheshjhata
shame
##akat
pyaare
##sarg
raag
garibon
##rama
##mur
##oktober
##wada
samir
सग
##vapar
avyav
lun
teble
panna
gujar
colony
hospital
##antee
2018jan
sudhaarney
counse
short
balmukunda
2018july
##titu
2018june
##chap
nm
##final
shreshth
chaandi
naukaribank
saini
barat
##ratop
saraah
cross
##vapariksha
10vividh
gyansamanya
darshanavishvapariksha
quijghatnachakratop
darshanavishvaparikshapayogi
daali
shubhar
lite
vidhe
##disambar
sti
नजर
trading
कट
ayurvedic
##anta
hello
##health
deshbhar
donald
samalangik
tendulkar
dein
avi
peshe
neu
barkaraar
##यमतरी
nic
परण
sampadakeey
fef
sabaki
##pshan
maheenaa
##farvari
imam
haani
mantriyon
zeus
##लर
bhent
vidheyak
adhikaron
stareey
blue
sunanaa
##arsi
maalya
##its
शब
marketing
##nar
##aadhiyon
joda
दिनो
maddenjar
##मक
##artment
shir
jansankhya
kaagaj
गाधी
pitayee
परीकषा
##varsh
सपर
info
बाहर
muhaiyaa
sanra
##bel
massej
stat
bs
yogesh
shubharambh
2018disambar
फी
2018farvari
2018janvari
2018sitambar
2018oktober
jamaanat
तय
राषटर
corpor
रात
point
शिकषा
nor
ghadi
##geey
jaankariyaan
nakli
dir
institu
khit
khad
dikhaate
jahaaj
mazaa
hazaar
roka
sadaiv
krodh
##daree
माल
upabhokta
cer
swad
##aner
gajiabad
counselling
khaasiyat
पहली
shatabdi
saharan
bindu
lekhakon
padosi
##prat
##guj
##halay
चाहत
viraasat
bahujan
chahen
##gue
bydaree
diwaar
##ations
sachmuch
ghanta
plateform
sait
mesh
ection
pes
maano
##िसतान
dee
##grahan
praarambhik
जाच
hus
start
pod
##halk
120
कहानी
senior
दल
badhiya
diabe
masti
ene
##naaon
bhakton
zim
khaastaur
himal
कोरट
recruit
लिय
kaafii
##yankan
karana
visheshta
veda
vastuon
daravaaje
asah
वज
##ायद
##bild
नार
##aarit
##shaah
##िफ
padhie
ana
khitaab
##arnagar
was
kartavya
fatehpur
##iniki
जाना
##gra
kaamkaaj
airtel
कारयकरम
related
proper
##hakaari
icchhuk
samarthakon
agenc
fast
##25
##kk
##marg
iskar
success
yuvakon
##hh
pattee
107
koya
nitiyon
phal
samanvay
susheel
tank
dhum
ranjit
##ption
darwaja
surat
##िवारी
admit
aditya
scrable
shro
utpeedan
##odainiki
webodainiki
pane
aparaadhiyon
लकष
praatham
मतर
ranon
abhyarthiyon
cobild
prakhand
deni
##कश
vrishchik
dhaatu
aishwar
laptop
jaayen
pratibhaa
shim
##bia
panjikaran
stambh
sarkaron
##shaa
mini
moh
bareli
##ages
##eef
old
sadhu
तिवारी
##uma
samajhaa
stor
187
khuda
ht
steel
pus
trav
bhavy
pulice
mark
por
##kash
thy
sansthaapak
##ington
dahe
kamaane
hry
kaarobaari
sajeesh
isai
kshati
अधिकार
saav
sabakaa
पाच
झा
nakshatra
##िकट
lakdi
dabl
factory
veri
roshan
hasan
gambhirtha
pratyaksh
sindh
aishwarya
raatri
##mbu
kachche
lift
अधयकष
jite
laanch
##66
##istant
institute
swa
say
bhagavan
##usena
##oort
वा
amp
jonpur
शकर
million
84
परधानमतरी
chamatkaar
jashn
prabandhak
कही
##avati
saharanpur
nd
##asena
discus
पिछल
jhalak
jak
oil
section
non
trailor
medal
##uton
madhe
gra
badmaashon
##cc
bees
baithne
उसन
##ambhav
kaatane
##upchaar
##poli
##inter
sarkar
##तमाल
laabhakaari
dijie
124
kalakaaron
pariyojnaon
sampadit
sharten
bala
daale
ankon
##रथ
##जो
khid
##gdh
sthaayee
snaatak
kamaj
महतव
पछ
prastaavit
##ikant
recruitment
page
bujurg
vahin
##td
इसतमाल
##mana
##नाथ
##सन
##आर
kitaaben
maanavtaa
##ukhi
sangat
baka
nifti
##aro
saahiti
vanchit
kathor
visheshgyon
iraad
##jahan
tiiti
hath
left
bhagal
##ette
uthaae
##chaap
tale
##fil
ml
##haaya
तयार
##anto
relation
adv
##lifesti
gift
##विद
##ushka
आरोप
##asil
chauthi
moolyankan
128
watch
घटना
sif
##arti
कोश
##िकल
##unga
##dati
josh
motaa
##laj
##ulakar
##ona
jub
##जीव
अला
registration
dengue
ci
juute
daayre
drugs
कपनी
79
##raam
charchit
jaal
samm
mehmaan
chaliye
pustaken
chhid
mithi
गी
##waale
chir
editor
uri
##daas
diabetes
##ataf
angan
##तिहास
vag
##tejey
##pti
mujffarpur
nattejey
daanton
##sso
bhavishyav
##ophe
les
commando
गयी
##wn
##टक
खर
##mita
##ilaa
bose
jaanwaron
mechap
bhagalpur
सथान
मखयमतरी
shivasena
madhur
##waala
##aiyr
##tad
sukhad
dayanand
2004
anuroop
helicopter
hindustani
##khan
taman
savitri
##gram
lip
##ghar
saport
apn
ramak
inc
अचछा
our
swayamse
paramatma
##टो
##bhan
67
##oli
शहर
वजह
niryaat
saamudayik
##dipi
daalen
vibhag
jamini
##cu
शो
##ayas
word
gon
kamajori
subscri
##पल
vibhaagon
khal
gusse
agyaat
ensiaar
kisne
##akot
pahunchakar
bor
kaabo
sristi
khubsuurati
rgb
saahitiyik
muhabbat
chalegaa
bachat
dijiye
##jain
krim
##chati
pratyaashi
##aarak
##vious
##lie
##eern
sarvottam
hsl
##hitiv
जिल
gyar
varanaa
आयो
##haj
tasveeron
totake
##gin
##radesh
##mul
samasyaayein
phek
##atri
##yarpur
##िटी
diary
sanshodhit
ladakon
##udaa
##walior
डाल
ejeen
anoushka
##uthe
fero
nambar
satark
##red
सवासथ
pole
bure
रिपोरट
lambe
##तार
naksaliyon
jurmaana
pratha
peri
radha
shakh
राषटरीय
parichar
apradhi
ikbaal
laayak
सही
padegi
rogi
समा
prajapati
banegaa
nakal
##thon
##fan
turki
ninda
naaballig
sujan
kariye
saahas
admin
vaisaa
sahay
bataae
यही
maanga
prasaaran
##adiya
girane
silsilaa
फोन
105
maay
fur
blaak
लाभ
मही
##etry
मधय
install
jinase
feroze
huk
##सस
paimaane
धयान
jone
##abha
sensor
bagaiyr
##uuli
vinir
baag
jataka
##वाह
मखय
##dor
meeting
naaraazgi
bagal
saas
hex
बिना
seekhney
kil
myne
##ायक
sahan
shatak
tand
उममी
manzil
ferozepur
studio
gunon
sugar
sandigdh
ksht
##idi
badan
make
uddeshyon
who
jeb
pahane
बाज
mandiron
parish
prasaarit
##punjab
wil
pratyaashiyon
thaa
##unjay
maik
saude
kiraaya
flip
parivar
ull
##ालय
maangane
foundation
##hiye
##asti
suchak
bistar
rahakar
मिशर
kub
सित
anuch
gwalior
tah
kidney
sainikon
transfar
sr
##cky
rupe
madadgaar
kism
taiyaariyaan
छोड
pagal
krit
north
handle
rasoi
pratinidhitiv
tor
maanata
facts
avgat
barsaat
bhraman
navjaat
##वाज
gaz
antee
##atta
ques
dastak
lekhon
shimla
mansa
assistant
##wast
guide
एड
siik
##chid
multi
kholaa
gajab
asaam
66
santrup
nirbha
paidal
deree
##ges
##ober
ballebaaji
narmada
trust
##guru
surabhi
pravriti
##नद
telephone
##चच
rum
jatiyon
arabiai
नता
दोसत
shakhsiyat
sheershak
deyari
sanbhaal
thos
##दीप
shukr
##hisar
##raajnneeti
punjabi
kay
##city
##gujarat
##तिक
pakshon
5000
padaarthon
##anit
pahari
messi
exi
shrikant
esa
mananeey
stories
maanak
high
pump
prakaran
plant
##raar
rajane
saum
leni
padhakar
सबह
asti
sangrur
setting
risha
##abiz
budh
just
palika
250
prasang
purushottam
##टरन
sanchaalak
##saas
##orial
peya
##anam
parikshaon
sambhavit
failaane
उममीद
अख
144
vaardaat
neem
previous
agu
samruddhi
aabhaar
sarvas
badhanaa
clo
जवा
saleem
rich
##log
thin
bivi
sinchai
##ॉन
personal
##shalfood
khaaen
tog
diziner
##nesot
##airdhya
pradeshpunjab
kariyarraajnneeti
##larvish
mazdooron
##sportsso
pannabiz
##healthlifesti
##gujaratsportsso
##shalfoodhealthlifesti
##nesotophe
pradeshpunjabgujaratsportsso
kariyarraajnneetiuttar
pannabiznesotophe
##shalfoodhealthlifestilarvish
pradeshpunjabgujaratsportssoshalfoodhealthlifestilarvish
कदर
##pin
icon
akt
adhiv
government
utkrisht
tair
prah
teachers
buniya
badhegaa
abtak
chaunk
sulaj
mol
sidhi
nafrat
mayank
रहन
##aalaa
stage
lend
jaisal
गपता
##inoid
रचना
ox
host
ankur
आश
##diya
उसका
##mortem
##ev
dhawan
##dom
##ys
westein
walp
##shid
rashid
manisha
mujffarnagar
aligarh
inta
anuchhed
##waah
requ
syria
##11
bakh
tareekon
laash
buniyadi
##mp
panchami
जम
नए
bharen
hastk
premika
sushamaa
shashaktikaran
banav
भाव
##aridakot
vishwasaneey
##ctions
अलावा
tush
tritiy
##anton
##order
pata
gee
uthaakar
paanv
jode
october
maheshwari
haus
##फर
##than
postmortem
karengi
hinglaj
##laksh
##murti
europea
swach
aktubar
au
effect
##jiv
kapoort
ladi
akraman
mughal
600
##जरी
##amparik
jabaran
बट
##arter
##sia
##kam
ghotaal
show
##हरा
##matic
nagpur
oj
paddati
prishthbhumi
##karnon
phan
pattey
detail
##amand
full
gathit
daadi
##िनन
लगी
##aaiyon
sammilit
##kap
audi
rasul
##ashar
bottle
aplod
dhai
सवासथय
eme
dawaaon
virgon
rishabh
##yakand
swaab
करग
##बत
##wargeey
##idas
ahsaas
##aanukool
##बई
baapu
vipin
paaramparik
भाषा
kaamana
majaak
bhavuk
kabje
jagannat
##lide
kaark
paarit
aakhirkaar
सचना
##दय
##arit
आवश
akelaa
##धर
##zilka
swaabhaav
##लाह
लगात
tukade
patari
aatankwaadiyon
najadik
halkaapan
servi
यातरा
uthe
ira
vaastaviktaa
dairdhya
##कता
santrupti
bible
swaabhaavik
passw
##qi
##amak
सिन
paste
lihaaj
sabsidi
vibhaajan
##duc
phulon
##पाद
mahangaa
festi
password
karam
aalu
vyan
वयाप
booking
vaataanukool
##kad
jagannatha
##mark
##बक
please
sargical
walpaper
##no
sankraman
mel
hatyakand
##upchaarik
ghotaalaa
##ारो
machhlee
aahvaan
alb
bhrasht
विभाग
videos
##gun
angrejon
anal
##pon
dabaa
ऑन
##chhad
raas
panel
sameep
shot
खरी
yatayaat
chaaya
bard
bhang
avishkaar
sharif
बध
oc
anaaj
dhanu
##adesimal
hexadesimal
##udhon
window
saheli
lot
panjikrut
##ाए
majbootee
##bagh
nirdesan
##nati
chatur
khus
##फल
andr
hormon
##aaria
change
##waasan
##vaidhanik
maap
harshav
vijayawargeey
develop
history
messiah
lathi
माधयम
adde
anuk
होग
urisa
zamin
equ
akeli
बिहार
event
parivartit
##chh
barbaad
कब
add
hastkshep
##ccha
utre
biit
washington
##gaz
harshavardhan
##aahe
bheeshan
jagajeet
office
##halal
udaipur
##eej
##cum
sansani
jug
dukhi
जिला
praathamikta
तरफ
करीब
paye
sanrachana
##politics
tushaar
xxx
paraam
तस
prabhaar
maath
nick
##yaron
paay
romaan
aalia
andaaz
##hadh
selfi
caf
lata
##shad
सोच
##ren
canada
deli
paraamarsh
gayak
roh
bukh
ayush
sankalan
##aid
guard
##atv
परभाव
ganraaj
हाला
##aahit
ltd
chach
nainital
daavon
paricharchaa
800
##adaar
afvaah
##col
##कषित
aashwaasan
parde
crimepolitics
elahabad
preetam
waar
queen
kalyug
nami
##ाती
naare
budhi
mulyon
romantic
घो
हालाकि
sindhiya
semifinal
139
aagaman
मई
##ardhaa
##jyo
विरो
pidaa
apharan
mj
##aanya
maathur
visit
positive
sor
surveykshan
pravish
##भग
vasund
officer
raghuv
##haaon
##zed
navami
12veen
discussion
##cel
bakawaas
rachanaatmak
वास
रलव
##jeev
##shr
bikaner
avasthi
release
##yaaon
##aniv
##upyog
iq
subscribe
ulti
padhanaa
##agav
बीज
armbh
दिवस
jwo
diksha
jeevani
##araa
banaam
disi
##थी
save
##tahik
##ichit
रोक
sifarish
सामानय
उपलब
vaataanukoolit
लो
pasandi
daar
faij
ejeeniyar
westeindies
lambaai
kamyaab
vijan
##coin
garmiyon
##शत
banaras
bajp
##ukshetra
हिनदी
swapn
##चल
##ishor
mangalik
navaj
yamuna
gyaraha
dry
sakal
aapadaa
pdf
ruj
pariksh
laana
##ffee
##amgarh
##jeet
anitha
bharad
##24
शरीर
kurukshetra
racip
शाह
they
karaae
##टल
सजय
apur
##agarh
##job
blow
नयज
parichit
##okt
##tility
hamal
khaal
vasundhara
firing
yaaden
जबकि
##सो
missile
##inagar
होना
asee
subjiyan
##रीन
bahi
saptahik
samiksh
pasandida
killer
akha
विधान
mehta
##उन
result
lakshmana
##fate
nasha
##sty
peshewar
camer
रोज
पयार
pratishtha
##eng
##ado
aaved
badhaayaa
kup
shahjahan
रिकॉर
##डन
bodh
netra
mr
##our
111
ambal
##patar
lenden
chhip
##ushan
ron
flo
banenge
##atiyon
sudarshan
gaha
sonam
aud
##रात
pramanit
huyi
bharadwaj
विजञान
##vaadi
student
जनम
whatsap
asv
ganne
christ
##rapani
mukaam
##मीर
patrikaon
inext
er
forward
##adabad
vaaki
##pief
paint
##wocket
ritern
status
guda
jwoin
##ural
kamyaabi
hryday
##palika
##बन
piti
jamalpur
##aithun
sapan
ipl
vinayak
charnon
सरकषा
पाठ
##iyn
hansi
bukhaar
rubar
bhaatia
trade
dabang
dubai
uphaar
##akari
##bali
muh
##asir
vineet
##ालन
##बस
153
karuunga
sleep
ganraajya
mix
fed
##board
guarantee
kamishan
grow
##jind
##umar
kaaryakari
badhaakar
##धया
ray
kashmi
##akishor
##lag
sanyog
kursi
bajpeyi
major
nidesh
##uria
##ritsar
##agud
mart
nab
##ret
वार
edwocket
##eme
bavaal
dup
##teras
chhav
pot
sookshm
##riyaan
khelte
cast
vaah
hawaale
##entre
विदश
काल
##ameer
##गज
1984
##खा
##eni
pitaaji
जररत
nagaland
aids
inspe
कहत
voting
dhumrap
##alif
##aney
anyathaa
##iron
bhagwat
binar
renu
सघ
##bek
chintit
पोसट
sarita
medi
tejasvi
##kait
##lack
##aast
daag
##cted
call
##miya
बलकि
##ksha
lutaa
##nala
prachlit
ssc
ruke
drudh
##ukaar
thok
israel
dhanteras
asana
आवशयक
##ox
रखा
किसान
sharmnaak
##tah
ikat
vivaadon
yajna
##enda
chitt
ground
gulam
sahare
services
utarane
##vies
##ियम
bhajan
mood
##जित
haridwar
exiaar
homeop
pravaah
rudr
##डक
piesi
##lai
waal
##aganv
maange
yeh
##कटबर
letest
bhakpa
vastra
##maran
pressure
pratyar
lila
council
##uuf
laalkrishna
states
##endr
जडी
property
muni
inase
परयोग
jabt
pratibandhit
travel
grover
aapr
oonchi
naach
vol
asveekaran
999
##angra
##hast
sevaniv
siyaasi
joardaar
esad
repor
maul
पिता
grap
##plai
income
feat
echdi
##wey
##hasp
##stan
##uld
rashan
##ameth
sasti
dib
##miyon
रपए
मास
##mlah
gene
##atkan
dekhiye
mahatva
##aanki
##agavada
##ikull
##vayan
prabhaavshaalee
samajhaayaa
##rent
##rang
##ogapati
chinh
##लाइन
##purcha
##purvaran
##jalandhar
##most
farr
##ohtak
##urukshet
shodhar
##karnal
##तरा
dikhataa
##onesia
aajam
peshkash
##urdaspur
ekaj
study
##abhivani
##fazilka
परमख
##halaludhi
##jindkait
##ohtaksir
##atafaridabad
##fatehabad
##faridakot
##arewadi
##barnala
muktsarg
##oshiyarpur
##usolan
##shimlah
##agarameth
##afagavada
##oonamand
##symun
##mirpurcha
##ipatafaridabad
##batinda
##asonipatafaridabad
navanshahr
##namritsar
##akhanuuf
##akhannamritsar
bilaspurshimlah
##anagarfatehabad
##mbakangra
pathankotoshiyarpur
##halkurukshet
##asilakhanuuf
ferozepurfaridakot
mansafazilka
##hisarkarnal
sangrurbatinda
##anamogapati
##inoidameer
kapoorthalaludhi
elahabadagarameth
ambalabhivani
##patarohtaksir
##rapanipatarohtaksir
##agudaganv
##atkanpurvaran
##ikullusolan
##jalandharafagavada
##jindkaithalkurukshet
muktsargurdaspur
##oonamandikullusolan
##symunanagarfatehabad
##mirpurchambakangra
##asonipatafaridabadarewadi
navanshahrakhannamritsar
bilaspurshimlahmirpurchambakangra
pathankotoshiyarpurjalandharafagavada
##hisarkarnalasonipatafaridabadarewadi
##anamogapatiala
##inoidameeratkanpurvaran
kapoorthalaludhianamogapatiala
elahabadagaramethinoidameeratkanpurvaran
ambalabhivanijindkaithalkurukshet
##rapanipatarohtaksirsymunanagarfatehabad
##agudaganvhisarkarnalasonipatafaridabadarewadi
navanshahrakhannamritsarbarnala
bilaspurshimlahmirpurchambakangraoonamandikullusolan
elahabadagaramethinoidameeratkanpurvaranasilakhanuuf
ambalabhivanijindkaithalkurukshetrapanipatarohtaksirsymunanagarfatehabad
ambalabhivanijindkaithalkurukshetrapanipatarohtaksirsymunanagarfatehabadagudaganvhisarkarnalasonipatafaridabadarewadi
dhwani
bajaj
dra
साहित
##maithun
indonesia
##0e
chaow
##unya
जिसस
brake
krime
152
apk
##gus
chaowkee
tang
##qui
dhaa
anjaan
pahunchaaya
nahar
##isa
##uchi
racippi
aapraadhik
dro
##ny
pratiraksha
sansadhano
chhedchhad
laabhad
banaa
santusht
kargar
veg
##bio
nurs
sindhi
##pai
punarvaas
shopping
apps
sandhya
naks
bhimrao
vasudev
diwaali
जनता
nicha
focus
dahej
prashansa
jaanavar
##wel
manu
chachaa
##ror
##गरह
naid
##karsh
booth
e0
muradabad
shaasha
##ायर
eh
inakam
##say
kriti
baarah
grahon
energy
intel
जीत
नीच
bhoga
सवाल
ari
##abri
मसल
##heli
faijabad
patron
asse
dail
इसकी
vaade
##aave
ashtami
पाकिसतान
sikkim
जिसक
rajnish
##फा
साहितय
गौ
छोट
saubhaa
saubhaah
##zan
##ाइन
samandar
##leum
siio
saubhaahgya
bataaye
treat
haalaanki
##mahal
##chat
jataayaa
prote
##rd
हार
gira
drive
sahityakar
##paad
hosh
##ीक
metric
##eeja
community
aachaar
##oy
putree
aayaat
demo
##shor
samaapan
##baaron
##रीम
शख
##shtee
andhere
nateeja
sheetal
anubh
arunachal
brihasp
bheji
peop
dit
bhair
videshon
अचछी
neembu
चला
##right
दरज
pahanane
##aaku
##nas
##लड
kusum
bhaar
moulik
##risha
ranbir
##miki
halke
pyar
निकल
##rican
vyakhya
paradesi
##दरशन
##13
sos
निरमाण
bisht
taare
artical
janajati
patibaddh
bhun
educ
bast
manaai
nur
aamad
yag
shakkar
processing
inspector
##ोटो
साह
##िली
bangalore
##rs
mlm
naidu
##तक
मोब
aff
package
##pek
festival
aavan
दब
banaati
atake
taa
भगवान
bhedbhaav
vyat
विजय
kim
sami
ajab
frank
jalan
shraddhaluon
##mumbai
meghav
सास
abb
shravan
intjaam
jaanati
##pand
daawey
दखा
##umaar
coffee
दखन
ary
daayitv
chadar
##वक
अरथ
##ाकर
भाई
maangon
hill
vaidya
vasuuli
cons
nobel
muaav
कौन
kitabon
thekedaar
uparokt
##agopal
sachche
khurana
##pali
pali
detshit
taad
##nia
##सप
hiran
##shed
brihaspati
##of
transp
pichde
##himpur
bisisiai
##kas
thyroid
jwaala
अनिल
channelon
dhakka
dy
theme
##gadhi
##cast
mjedaar
##oof
intazaar
sahil
256
##avaan
117
singhl
marathi
##थाप
maanavadhikaar
##alit
avadhar
##बध
vivaadit
विध
rub
bhupendra
##मिक
sasuraal
quality
pain
contin
##back
naakaam
inf
silsile
##shri
##skeey
जाएगी
siddi
jujh
taxt
tuje
bhagidaari
blogar
jokes
भम
congressi
emp
##york
francis
##rapal
ayushmaan
इडिया
salaam
##stud
maanviya
jafar
here
tritiya
padate
aspataalon
spes
ms
##can
##pecial
kaashi
avadharana
##wale
उपलबध
antat
paison
##22
uthaate
sukhi
gajipur
manovigyaan
todane
##गन
जलाई
varun
tumhe
vibhageeya
petroleum
html
dohe
nilambit
fer
endie
rod
mahanagar
arakshit
maham
akhabaaron
aglaa
pahi
padhi
कित
people
brajesh
myan
blast
vaaya
bazaaron
cel
punya
striyon
sangit
neuyork
tun
जॉ
##shma
##ubah
tahar
##bhavi
fefdon
##lex
bhandar
gananaa
naukariyon
अगसत
##ooru
inte
yojanaayen
sath
dhoom
##aks
##handi
saste
126
chalakar
gaal
bhid
saadhaa
shivling
copyright
कोशिश
daanv
bev
lakhimpur
chen
anshan
dhand
##ॉप
javab
rajyamantri
gopneeyata
ujj
prashnon
ias
##hoto
##ततर
##ipi
inako
telecom
ceo
elidi
swe
popular
deshb
komal
samrajya
##achun
nitin
function
eps
shaikh
spich
##faraj
shyam
anudaan
rivaaj
bench
upkarnon
bimaar
hij
##enia
##ania
ujjain
bold
##वड
मि
flats
baghel
los
निश
unnav
##khaar
daron
bahup
pachaas
baand
kamedi
##aang
##shil
laalach
##yojit
lautne
saran
uthta
guz
security
##yamay
pahuch
index
swit
nyaayamurti
##itya
izzat
नबर
yaksha
##zon
##tenment
उल
neut
pure
महिलाओ
chalanaa
eemaandaaree
pakade
परष
gahare
togadiya
##xic
balon
##yor
##ogari
maalish
pados
sangram
alka
surakshabal
121
udaar
kehal
kasarat
पतरकार
khanan
पतनी
कविता
kohre
vidrohi
black
speakupfor
##asan
##wans
##शक
broad
jhanj
##ooter
bataata
10veen
##diki
yaadon
arthsh
sakshar
kaksh
cigar
##bhadra
pound
counter
bene
नोट
shaan
matbhed
aria
shivaji
##bert
jairam
kushvaha
bhool
sampadan
##aastra
takalif
upadesh
तहत
javabde
feed
lokesh
meyar
##aton
रज
laakar
rajat
##que
fisad
apeksh
neur
esas
##achand
kile
##sheel
##ियल
antarman
##aajat
##करी
empi
immunity
anshu
kiraye
berogari
koshika
मौत
galaa
papp
##shipt
peechha
sambhaal
##यल
नवबर
##वासत
abh
obisi
हास
baby
##anjali
paribhaa
##bhasha
ide
uthne
paakar
adivaasiyon
boss
jut
##माज
लगातार
वस
yadhya
इतिहास
##ics
##vishesh
ib
yadhyapi
bajaae
asaamaanya
premium
agenciyon
gardan
ghabar
##inon
kaman
uda
bigg
kangana
prerak
atyaachaar
vaapis
endi
ganatantr
##19
udd
raghun
##achunaav
लगता
soor
achal
aksh
fron
मगल
newj
last
##rath
वाय
##harth
juden
kashmiri
naksali
sarathi
saunpi
तज
बहतर
mega
upachunaav
other
maujuudagi
कीमत
अकटबर
hd
ajuk
snap
austrai
मोबाइल
##chandra
daily
shaitan
royal
##chu
pregnan
##eshwari
रव
##daus
draft
##ायत
मडी
exp
##लोड
chay
##tesan
virod
chum
##ids
newjiland
##amana
kosi
dial
mass
haraakar
motilal
muskur
garl
pahalwaan
judy
shahi
ghere
##भार
सरकारी
vifaltaa
archana
निरदश
opshan
ramanuj
binary
##ariya
##afil
inextlive
savita
tamanna
koyala
doord
##सम
##uh
only
parid
2002
dhoo
hindutv
laabhadaayak
राहल
##eration
bhaaiyon
##shulk
collection
gajendra
jansam
aplicoshan
pili
141
madras
sote
sood
पति
##sahit
mall
jaafar
##abook
kapadaa
vini
gavaahi
hwat
##ारथ
marri
##ose
tippaniyan
nishchay
khanna
nyaayik
राजनीति
kishan
gyaat
##abandh
कषण
jatke
ksh
deshi
bhaagon
granthon
vikalpon
kaviyon
serial
##manir
##avya
पकष
amrap
upyogkarta
अद
vaan
delivery
pregnancy
कहना
nirast
thoda
scandal
mantrimandal
##eeki
esay
saunpa
##ig
##avaani
शरीवासत
purvan
महीन
##niv
shunya
##ाति
jehar
##chitr
##undal
##akshak
iphone
मना
subaha
parvati
niranjan
thags
##ohar
तरिप
##anya
treatment
##30
raam
harakat
azaadi
tirth
quarter
सिदध
samraat
reddy
calcium
##his
series
khatir
charm
blogger
##onk
puraana
##onai
##coun
दता
maldi
disple
dukand
sangrahalay
chai
jadi
daman
darshak
bataati
rangon
vyaa
amrapali
##yojak
wont
वी
sire
chhattisgadhi
परदान
##charchit
nakvi
mukul
khidki
gug
minakshi
##zer
rahasyamay
haraaya
##ogen
vikas
bandook
##sth
nishane
dukaanon
purti
sevak
pratisp
थो
pir
chadha
पहचान
ठीक
##ashmi
poochne
सदस
##mud
shashakt
##ोरड
taiyaariyon
##pend
##eebi
gavaah
mahad
shodharthi
sabakuch
जररी
##dangal
dilaa
##afilm
takas
maansikta
matadaataaon
##ointer
##atil
hwatrup
granthi
##vaahik
##राषटरीय
raho
praaroop
dhumrapaan
##ahalla
##haase
khurshid
naanaa
bolmumbai
##avaardat
reportdharm
metroindia
betiyonso
360vishesh
विधानसभा
##dangalahalla
takaspecial
##avaardatdangalahalla
reportdharmavaardatdangalahalla
360visheshsas
##बार
ginati
dasvin
agent
शरीवासतव
amareeki
parich
thakaan
gahan
##charon
rahu
televijan
neg
tikaa
fire
tablet
maaya
विभिनन
pahunchaana
लगभग
pile
vikruti
pyaaj
player
गय
##pri
rut
shridevi
##heshwar
##vuch
##yang
khabarentre
##ipafilm
##largus
samikshointer
##vuchota
khabarentrelargus
samikshointervuchota
khabarentrelargusipafilm
reeta
vaivaahik
gyarahadesh
soris
subahaek
sorisubah
##haaen
asant
##atre
bengalooru
mistri
parfe
86
month
paudhon
azamgarh
ansaari
supplai
##kia
शबद
kaf
##athy
एल
koching
बलॉ
##bahubali
jaafaree
chaitan
96
lay
##advide
dhu
aadhar
gham
##eserial
sephoto
khabarenmr
##osibar
kandosibar
krimeserial
##kapulice
killersex
scandalbahubali
##onaikapulice
wontadvide
mistricharchit
khabarenmrder
scandalbahubalimost
wontadvideonaikapulice
अभिन
##vil
##ताव
##bhit
##wir
utaara
khushiyaan
richa
81
##षित
local
dosto
cb
##hawat
पच
descri
niabandh
mukadem
bahanon
khai
##yanvayan
gk
khole
kataa
timahi
rrb
shivpuri
medicine
masala
jhaansi
##apha
nickshulk
vikl
gurugram
chudai
gora
##chars
pappu
ii
salanaa
तरीक
khuj
tiimon
pakshiyon
##lyoo
banda
उतपाद
hindost
ijaajat
abe
member
rachanaaen
human
##delwal
jy
minist
बीजपी
vipul
##chidanand
desktop
krishnan
lagaaye
##chad
agenda
##iraj
prathit
sate
doshiyon
vichaarak
##गरी
yas
anbhavi
##ritiyon
dream
urvar
lokapriyata
bem
barkhaa
##ving
vinam
churna
barn
pakadaney
rhe
##ियान
kamish
apatkaaleen
some
अधिकारी
khuf
ishaara
surakshabalon
lau
excl
muhim
siddhu
##tin
सथिति
चरचा
gendon
protsaahit
khandelwal
unc
pare
##shakti
anita
vihaar
punit
asur
sneh
janhit
167
nuskhe
##card
ama
danta
pustakon
##lection
sanvaidhanik
rampur
sachchidanand
kyunki
##chayu
send
##adiyon
##rosh
karina
praa
##hiy
aankada
badali
pip
##eshiyon
haul
bhavar
joki
##taron
cigarette
mistar
karat
chaitanya
grad
vadh
yachikaaon
vividhta
##apti
nishpaksh
american
biechayu
birth
टक
##metic
madam
सवर
##anaak
##कशन
mashaal
##bian
vic
बाजार
andaja
##als
##udan
bhadas4media
links
vasu
rakshas
##मता
डाउन
magaz
parijan
tarakkee
def
gadh
poon
megha
gail
grand
pichhadaa
##hilesh
aguwai
270
nikaalkar
##sham
univers
baadaam
benef
##apradesh
takree
सहा
##roj
saura
madhepura
dent
sadiyon
##iyaad
physio
dakshini
rishwat
nadiyon
certi
##tary
##सटर
##वासी
takreeban
##sim
##chdi
##dhak
aamadani
##ikaarak
ndtv
nichle
##valay
saket
stop
windows
kandhe
##woy
shaanti
##adar
samgr
tanwir
laghuk
niamak
##avanshi
bimaariyaan
kro
enter
vamp
nen
sampr
ajukeshan
maov
##yakanth
##nu
mek
##aseen
karwaai
##amat
upek
pien
acre
##tn
सखया
##jhapan
231
baharhaal
vidwaan
sindhu
bandi
dhimi
##डट
##students
akram
leader
tii20
bran
geor
##shot
सममान
duniyabar
लखन
मिलन
##ju
##dle
##ride
praani
shivlinga
##kare
##chiyon
jonas
495
##िनट
vaakya
rikt
##minton
manthan
वाप
mitro
gauri
hindustaan
ujaalaa
दा
##ote
maamuli
count
##राब
irani
235
jiti
nideshaalay
पाड
bari
asambhav
dhair
isane
morche
vyaakh
sochataa
jeena
##wet
chhin
samajhad
वकत
apper
kak
refer
rob
##tivity
hathiyaaron
sooryakanth
mithai
##pakv
ramdaas
##गो
##amba
padaadhikariyon
auraton
chitthee
mess
taala
##ankush
growth
खा
teej
मक
करियर
name
मिली
purvottar
based
##दव
right
dhooma
dum
shaktiyon
hormones
banjhapan
samajhataa
ski
obs
saint
giroh
seb
purnat
radhesh
जवाब
nirankush
parade
chaynit
trophy
led
swaadi
sarvoday
ange
ऊपर
beroz
jid
vyar
baagh
swaadisht
##khad
दरद
##iq
kalash
anubhuti
naate
saaran
jakh
seed
##sagar
##sanchaar
uttarapradesh
front
##परा
description
mac
समी
chalaate
ती
सोन
priyadarshi
kutta
nity
vinaash
reporter
sibar
bonus
tweet
जिम
murder
iqbaal
##aasht
##नि
kaaryak
##mm
dayaa
##orized
कॉल
siddhi
radheshyaam
ramkumar
rand
niveshkon
darjanon
saatven
national
##oonga
मड
fre
gulshan
रस
शरआ
##80
typing
aayran
acting
james
##hosh
##ves
chaug
uncateg
bachaao
sujatha
bebaak
##sand
92
##rement
##hendra
##asthal
ire
सभ
badshaah
long
javabdehi
##खड
font
review
dish
शल
protsaahan
preran
dug
kahenge
उचच
##aayiyon
hiton
badalanaa
uncategorized
blowjob
##15
ghayalon
custom
tohfa
annapurna
hanikaarak
boobs
santulan
कसर
tumse
##ashastra
jalw
##fir
song
sanchit
namoon
formula
##लीवड
##yom
rukaa
bharose
kareebi
sansmaran
##lied
assemb
dohar
तथ
bhada
तसवीर
antertenment
paaen
##सव
pic
photos
##vendra
maance
baccho
##टरी
रखन
upwas
##रिक
सफलता
chaw
sahyogiyon
##िमा
garlfriend
##bandh
fanse
gujarati
sochi
low
technical
doorsanchaar
jhagade
adhyay
period
akshar
##avir
vyay
rid
sachcha
clem
khufia
paryatakon
prasannataa
चो
##sv
##asana
pement
पीछ
##ants
##oose
sarfaraj
ugr
ball
pratiksha
330
purn
political
##cart
naamon
##परी
##tian
190
gendbaaji
aplication
babi
voter
##ishankar
##naatmak
janak
photography
misaal
satat
samanta
lihaaja
insaa
महतवपरण
esadm
raji
jalwaayu
##utaa
pranay
upie
##panaah
abhibhav
##dir
बग
nagari
vaichar
bhartiyon
unnat
pratapgarh
215
exclus
khulkar
durlabh
carbon
chaand
माह
guruuvar
place
##aalit
chandravanshi
वन
badminton
##tus
storage
rev
##ples
rap
sangeetkaar
katkar
rajmarg
farruk
##rakhand
poem
##pandey
268
bishn
uccharan
dardanaak
jaha
272
pab
mote
colins
trainen
khaaya
##ulture
daalate
khanij
khiri
bigad
sitapur
samag
aari
अफयर
##antika
ist
टरन
##zd
पान
building
आल
##eshnal
भज
khanpan
gandi
##xy
haav
##ohi
duungaa
hamalon
vod
laae
##नन
raghunatha
piji
##dro
fay
##abadi
round
cosmetic
chahiye
satyaapan
समरथ
उमर
jatin
pahach
tutorial
ahan
isisi
ax
gst
soobe
magazine
aakrosh
sachi
diji
##eec
grast
हिद
pik
vesh
demand
kasbe
sattar
sthalon
kade
united
mohabbat
##ethi
try
ashraf
production
##anjasy
phase
duul
##kishor
aurang
offer
237
geetkaar
muhar
तौर
##amani
##mata
49568
jho
##aagar
खश
prayogshaala
goliyaan
##जली
जित
##arh
field
bekaar
आरथ
##pada
sindur
खब
##ctive
मबई
ghut
images
chhapem
##चन
sawan
##हो
bitcoin
jitkar
himalay
gadhaa
mujeec
हमशा
truti
##atic
candi
insaaf
passport
nirdeshit
##वादी
badalakar
ateet
sapanom
kamalnath
kuma
##biai
##uus
aavesh
sanyojak
##ission
उपाय
sudhar
again
viki
mike
ghulaam
bhaanti
nibhaane
madhus
यन
acup
omkar
parat
karnal
bepanaah
ames
##aline
maryaad
##ruv
gurum
samvednaa
prasuti
exange
##17
chaturd
छत
सटशन
लडक
##chaspati
पथ
johar
दसरी
##env
sangam
##run
uttrakhand
जानत
zaraa
##14
sparsh
jeevanas
import
लाग
namdev
bachaaya
jodon
dhal
हतया
ताकि
percent
gilaas
kheli
wein
सोशल
मताब
acc
saamanjasy
pareshaaniyon
##rum
213
mira
mithilesh
yang
118
नगर
karunga
2003
shakunt
tourist
##akhi
mehandi
##uck
##rij
child
siddiqui
##iranjan
farrukhabad
##sscr
##ahami
berozeg
mamaa
ghutane
जरर
सगी
मताबिक
dilon
azmi
वित
katar
jiladhyaksh
bhub
talmail
192
##nani
loktantric
maram
##naar
nirmaataaon
middle
##माजिक
##ssi
##hedaari
patan
chhapemari
udaaya
andhvish
ever
vad
##dhaam
khamo
किश
umashankar
mahasabha
##raah
##darshanee
यवा
##hagit
aabhushan
locar
278
##eri
buraai
nirdhaaran
nireekshak
##aato
दोसतो
firdaus
fesabook
bavasir
344
adarak
परसाद
surkhiyon
satyav
##list
login
tabiyat
##ject
besabri
apurv
kshamaa
nagendra
##मति
anokhe
death
garden
hardenia
##55
vam
saajhedaari
harihar
dayaal
##prit
ub
mahatvak
qat
shaayar
##anksha
plane
pilaa
ice
anupaat
gulzaar
prakiya
pinaa
smita
asafalataa
##एन
pitiai
chee
sthagit
jayatil
comple
##anshik
adhar
sury
parishram
ganth
madhusudan
shyaamal
kamishnar
mejab
##rashi
moksh
babat
chem
afaire
uthi
##laai
jeevanasathi
kaarak
niraa
##vanshi
भल
vachaspati
pyaari
mind
lagenge
anuvanshik
appal
##hanshu
bijan
abhig
ghaas
bedi
suchakank
bhavishyavaanee
amethi
swayamsevak
janmashtami
karish
nived
paavan
charam
kapadon
vija
##grast
uparaant
kiske
vimaanon
bhadauria
zind
dikhaae
stuti
sookhe
saraahna
athmiya
ishk
inaam
ghaatak
शक
pradarsh
##ratik
उसी
bhayankar
bishnoi
shikayat
sharton
magist
benefits
##cuit
##ासन
sava
item
adhikan
mangalamay
##ensik
calendar
puranic
faisal
sisitivi
##ोलन
naidanik
फीस
bidaavat
sakegi
tamaato
jatilta
##amohan
##yatra
gym
##itu
shobhaa
bharadd
redi
vansh
##सिन
अशोक
##soft
hadak
jajon
वयवसथा
##मित
atikar
samarpan
##abhan
bharaddhaj
vatsa
pipal
##जल
shams
pratyaropan
nihit
##गार
dashakon
shraadh
700
डाउनलोड
firoz
##ung
sachivalay
vishaan
kaaman
वीर
nibhaai
lanka
ranga
mund
sankalit
durupyog
nani
unm
##dhara
chhe
##jada
diet
gunjan
manjuur
megh
agrani
##pute
khalihaan
look
laute
adhigrahan
gandagi
rt
docum
ads
manam
malai
राजसथान
ganna
baran
chole
##yojan
परयास
swadeshi
samoohon
##ungaa
aansu
बनाया
siddhanton
nirdal
u0
breaking
chalaai
nauti
##ogon
सामाजिक
dehal
##shreshth
uthaanaa
##usan
samudri
legaa
नौकरी
242
patta
vishwajit
tricks
भो
##aamon
रहता
unnati
padtaal
भरती
falon
bann
gayin
vem
karmi
raghuvanshi
ramakant
paramparaagat
##भर
cele
सथाप
jhul
brazil
कमा
madanlaal
princi
##akshmi
baantne
harpal
arp
##rape
balbir
locarpan
hataaya
keede
##shetra
rujhaan
vishwar
austrailia
aushadh
1947
single
superstar
##rutt
smar
greater
##avee
mafia
dhundh
बोरड
invest
gaad
##जीत
aahat
mazaaq
vyom
##ariyon
shastron
चका
लडकी
cry
maadh
parshad
##aser
ivi
utpatti
jamaana
आदश
##sad
##gir
sataha
##bhaas
text
##jhi
kaash
डर
1st
##yaayan
same
assembly
negative
neuro
peeta
prabal
##aantar
hawala
होकर
saabhaar
beshak
##ex
upyogkartaaon
##hod
shakya
fibre
##एल
इतना
##िति
bula
ekajute
virtu
aavanton
##odak
bhuwan
basant
338
तरिपा
mrityunjay
nare
##eeth
sheyaron
jamun
milaaye
ganpati
pathik
atikaraman
##eron
pintu
bathroom
deshpandey
##44
##fare
dekhenge
darsh
##utela
pravasi
vaicharik
bap
ulaj
alvi
##niya
bastar
paramjeet
ilay
relationships
##ghts
abhyarthi
rawat
##esa
##पण
asamved
##avaalon
forensik
##taya
##shtah
padhne
##by
bachi
dehalavi
branch
##aavhaar
102
##ej
sadhak
रहत
कलिक
vich
support
इड
suchanaaen
##teen
kovind
certific
kulshreshth
##दधि
iees
सकरीन
shukriya
chook
ilaychi
paribhaasha
muskaan
##iyata
motorcy
अनभव
अमरिका
reating
##raal
ऑनलाइन
सात
kishori
bagchi
दना
dhairya
javaani
ment
##iraam
चीन
carch
behaal
murkh
##bl
##bihari
mara
boleen
dadhi
हिनद
आइ
चा
##लप
nautial
poshak
sambhog
लौ
ungali
tarj
कानन
##shuda
girls
border
##hor
dikhti
pashuon
शकति
shishir
##bela
आकर
paatrata
kapal
viklang
shivanand
gulabi
सपरीम
slo
परिव
murga
nirbhay
wa
bibi
nepali
esaspi
##taayen
prime
413
upree
keetanu
##िवदी
peediton
obama
chitrakoot
##unj
##hti
flipcart
परभ
alak
kambal
afs
halki
##raamak
##tawa
samajhe
apnaane
pushpendra
kaabil
##wine
##ोत
##फत
jaidi
125
unic
मानव
bason
347
तरिपाठी
188
siikhaa
kahar
##estry
billore
dhamaakaa
waalo
दवा
##हान
jayadeep
munish
मौजद
akash
bom
sie
ooncha
masale
publish
uma
वयापार
bhairav
narend
एकस
chachee
##bhal
##bul
##यकत
khojane
bevafa
##करिया
anusaran
kiski
nait
gadiyon
आवाज
anchal
nivedita
chalan
chaunkaane
jaankaar
memory
ikattha
swachaalit
orth
##bareli
da0
आवदन
sipi
विरोध
ramswaroop
khem
latak
agrim
बठक
387
gatividhi
amba
charchaaon
distri
premchand
अह
naav
nitesh
##tiyaa
##nalaal
aavashyaktaaon
langu
department
taharir
aryaa
reser
mex
##िनी
chalegi
parivesh
budhimaan
sankrut
dhanrashi
##waanon
bahubali
##ight
kali
निव
microsoft
premiyon
shukran
osmani
बटी
##aaraa
vitarit
##दरश
chinmay
gauhar
##len
aupchaarik
dalal
chawla
गिर
kaus
gund
मनोज
anushaasan
##ramani
spain
##rasi
marammat
nig
joli
jodakar
samajase
##टिग
##arabi
आलो
vidroh
sauda
veery
laapata
chaturdashi
colo
##dand
maad
##yen
leena
##pical
विषय
supriya
products
purvak
gangrape
sameekaran
lagegi
##avali
minutes
mazdooree
maanya
aaen
mahangi
nursing
atak
##16
hik
shrey
##chari
omkareshwar
samaran
vasant
yaha
saale
vimalesh
signal
बिजली
shahjahanpur
satyavrath
sankrutyaayan
anupray
##ruddh
##eeta
eentr
binu
gurumurti
छट
eentrnal
रण
kila
##योति
bhayanak
spot
##iibat
jogi
musiibat
posts
chouth
lahare
sampradaay
deven
kundal
##सक
##vo
अदर
##iyamit
aul
एज
raibareli
patt
hadakamp
certificate
##rant
chaaran
cardio
##adhin
bate
bacte
राजीव
restaur
परतिशत
##vasi
jagdi
niraashaa
dabraal
laung
मनी
forum
chusane
abhiyant
##kand
paribhaas
solar
##atvar
ajahar
why
expe
##ilet
##set
suic
धीर
रम
lalitpur
vyaavhaar
##asang
vanya
##baaz
kedy
brahma
##studio
sunaaya
siyasat
शयर
yatharth
shift
gayatri
rupi
motivational
##efs
sakshi
enes
tehraaya
##esthe
kriim
sethu
फोटो
gahalot
cas
##purush
clip
dastavejon
bhaagane
chauthaa
##antarit
devaria
anshuman
vardhak
problems
sinhal
kucha
##mah
1998
##wri
##eerath
##यत
bulatin
ijapha
samakal
mukke
talwaar
bhageerath
a4
##शिया
randi
nuskhaa
celi
धार
romance
879
avyavon
sweekrut
karaate
##endhan
##opause
bhagwant
sanbhaalane
anupriya
judane
jadyu
adhikanshtah
dhamni
##ribution
varshney
gatividhiyaan
toxic
2001
charkha
savarna
fasalon
##gari
insul
mirz
dabbu
prac
bhavesh
lokapal
opi
साफ
वरमा
मडीसिन
##adam
twar
महान
aword
kadaa
##giyon
##arnath
vishvavidhyalayon
kilogram
paig
kaaron
##cul
दवी
vaishn
upan
rote
shodhakar
छो
रि
681
karta
##ochem
chalange
gochar
सरजरी
episod
सोम
brahmanand
boond
mahima
achhi
##kel
abhaya
kosir
shasn
baranwaal
dif
##akht
##ater
suvarna
itawa
sbi
anik
newcl
पशच
juyal
vyaapt
talika
##chin
camstudio
लिखा
rukne
golden
binod
posh
kinn
931
eendhan
pyaas
pim
nishkarsh
fitures
gyaar
pratiyogi
banegi
current
chahat
##anning
infer
aanaline
atta
##anath
##amanas
napus
rajbhasha
jangid
baadhit
kanish
##ults
##shali
itar
##nanda
##तीस
rbi
##yapan
pukaar
##hez
fans
bhaan
vardaan
niyat
gyaarah
##avarti
kapadey
##amala
janame
##ritis
##aayun
vaanijya
nikalate
shaskeey
babari
nandal
##uvidha
jithendra
##vichaar
##िको
yatindra
kisse
napusank
भवि
amarendra
##lines
##ीय
##naaen
keetanuon
jinako
khaasaa
##hikha
ravikant
kaaryshaala
kank
alaknanda
pravishti
pushpita
कशमीर
pariwarik
sies
champ
ripr
const
saakaar
##रमन
anyaay
ibra
परदरशन
brijendra
kear
130
oop
vrat
chapa
##paadan
garbha
##tisi
ghatn
##शनल
apitu
बॉलीवड
paramparaon
rokt
##ankchar
##eb
napusankata
acupankchar
peyajal
voton
marwaah
jeenen
वद
juty
pez
hariraam
##airah
garbhav
daren
sthanantaran
##bit
cefs
rokthaam
चकी
there
apanaaya
nagesh
pret
##eelon
आपन
shraddhalu
naithani
munhaase
ramendra
bhog
shubhr
chhil
ramkishor
fak
badalati
manushyon
##yani
upayon
##pres
andey
asan
upsc
vanas
माना
##apratap
lohia
dillih
गह
target
tapas
profeshnal
sanlag
##viraj
ताज
dharmendra
गि
##onit
सविधा
taat
govindacharya
infertility
मला
हड
scooter
mahato
shady
fakh
##ापन
पसद
vivo
parvaah
asp
नीति
aaengi
maniram
every
बनाए
parichaalan
anaesthe
##ashri
dhanakar
##dosh
gag
schuli
giradhar
भविषय
hardo
##heb
gog
##laaf
aankde
vikaar
mahaas
ich
deev
badaayun
feel
गिरफ
shasnadesh
utsahit
pannalaal
jagadamba
##dio
jeebh
rudraksh
agrahari
vagairah
##muni
##dutt
##ayadi
magistrate
lokendra
##ullah
janamejay
shashthee
##dix
shrun
street
virender
jhansi
sitaron
##याम
nandalaal
sultanpur
##jad
##gand
kataare
yaganik
##yne
khaaton
paripre
samayik
kaaryakarini
kanishka
dhruv
shrimad
brain
kedia
janu
bhagwati
पज
shivpal
jansampark
sambhag
gant
sanjit
समाचार
hbn
israar
nijaat
pradarshnee
paara
advance
uch
viplav
spl
dehaat
##minal
paripreksh
albela
gom
continue
ic
restar
##otes
##khlaa
अज
admi
##tery
nishith
indr
hemu
shakuntala
##aasangik
divyang
रिकॉरड
chhit
##utav
##udayal
sany
##osis
pipe
stephen
isroyal
speakupforsscr
धर
antibio
jigy
biochem
kham
coup
kshir
dhokhad
सश
##esar
seene
question
pratad
कारड
##raapan
##टना
duli
##avansh
pachhim
vidhwaa
hazarat
plis
collejon
gupha
bahraapan
चतर
david
baalion
flu
मामला
taqatvar
##inic
alan
hid
raashiyon
aprat
resepshan
vishya
##iks
allied
theatre
sosayadi
##adayal
pud
netaji
##bak
afroj
bholu
parishadiy
bannerjee
hardoi
##500
mahajan
dhokhadhadi
iraq
leva
rajasthani
avantika
dilchasp
mantro
barnwaal
##eednaa
ishq
##erk
rajaneta
##meg
##ments
vaya
pravartan
tahal
varsho
##jaati
##terne
speciality
##ledge
ashu
pyaara
bim
bakaayaa
रिश
##aneshwar
dya
##हारी
##ather
aniket
chaaru
##ारट
##ptr
balram
mali
baliya
avis
dairies
akhir
pass
myanmar
orthope
##emasi
prabhun
सवी
rajanarayan
genetics
rashtrav
pandav
##बधन
safaltaa
##hakthith
paripakv
garbhavastha
hydro
##ffic
##ova
akalan
shet
laghukatha
sumant
stone
parimal
##ायण
##lesh
unity
saumitr
jainti
sarpan
##hamantri
chaatrav
सगठ
उपा
tathakthith
contact
education
swaarth
zi
chaha
peshey
करो
##agrast
koshikaon
ocup
also
hastmaithun
badhegi
##ott
##adaayi
lagn
sadasy
must
anem
kharida
शलय
prashikshu
dulichand
pite
spa
bahaanaa
writ
##waare
khabare
vyuj
dilchaspee
ustad
सनी
किय
tropical
desai
sarada
##sah
pariprekshya
bikh
doon
naaraa
prabhunath
vividha
##remental
maanakar
taadaad
dick
chadda
##lila
mahaa
ashubh
pankhuri
chadhaav
chok
pratinidhiyon
##sare
punam
##usha
dekhati
rumet
nokia
avichal
iviem
bahish
anika
therap
fichars
sitar
##aansingh
##lokan
vasa
##ch0
##box
vaai
mahag
##dhiyon
shubhratha
##satta
wale
paul
jagdishwar
nakadi
chill
शरआत
tractor
isot
mansap
गीत
trikha
rayjada
hatheli
##ramodi
##ternetive
kshat
barabari
ganda
##udia
toilet
binn
books
meghavanshi
beant
shirkat
##gita
alsi
##testinal
करट
enpi
paisang
sakuun
पदा
dhab
padmavat
बदला
utsuk
##ubi
pada
dinar
intellig
aarthiki
##taini
##akaran
टिप
lageen
kyu
##oria
musli
soya
##unkar
##rician
hemendra
vishnug
menu
sukun
twarit
##ौन
hack
vyanjan
babul
asamarth
##0ech0
cv
##थित
sapata
sardiyon
kshirsagar
saah
##arta
##utics
zaa
upaj
win
##38
interest
कमी
##aayah
vishyavaar
samav
gadabadi
##सिक
sanvid
khaakar
vayusena
chipl
shilpa
bisaaria
##वट
hamako
##isia
pradarshn
सदर
saraman
##ring
##malji
gaja
##aahaa
munna
##तीसगढ
akhand
garh
bahul
##rabhushan
gastroin
आनद
urvarak
kharidari
##कात
##iliation
##spi
bady
dhone
hanumat
guzarane
फसबक
tejavaani
badaulat
prabhudayal
##mone
kannaujia
premshankar
शभ
hindostani
##paty
gobar
nikaale
gastrointestinal
pulicekarmiyon
barun
after
karishma
satpute
island
##jyoti
##ivaal
moulana
sanathan
badalen
khajaane
chauraahe
dilaayaa
patiala
knowledge
vasuul
फसला
##haha
shikshit
devidas
##udee
chandola
haji
sahakaari
pranaam
balwant
ifte
##lantesan
khudshah
ukra
juluus
mahaasaagar
priyadarshanee
thande
isotope
secular
chandidutt
##ced
pukh
vigat
##ratikshit
chauraahey
##zam
ghode
khulne
bahupratikshit
##oron
##ayega
जमी
surendar
sabsak
rahamaan
padonnati
bolnaa
sexy
jiro
vyapaarik
chupchaap
parhez
indramani
gel
##avaarta
naman
chiplunkar
toote
##lataa
हमारा
kilaaf
##astry
ibrahim
tone
##ayon
जिनह
maadhuri
##39
मिशरा
duniyaan
teju
mahecha
kusumlataa
chikitsashastra
vibhaash
##िड
sankshipt
ardh
kshetrapal
##erator
iftekhaar
raajamani
brijakishor
parasmani
##iss
साइ
##षटि
pisies
sakalani
सिर
gurud
माता
riheb
kapoor
champat
vaisa
euro
##ddi
##olog
##thwaal
sibiesai
##uliya
transplantesan
triya
jeenyu
obstet
kuthiy
tabah
anaesthesi
anuyaay
aseema
sadasyeey
madhub
हासिल
ocupational
wairas
##dhyaksh
##aaspad
candid
vishwaranjan
kuthiyaala
pratirodh
dfa
chappe
##eear
neutrician
jilwane
kumarendra
district
viet
189
खो
tension
##antu
baudd
chunane
shishy
morning
kalir
newcleear
सीमा
choron
enwoy
album
nage
balid
aarifa
लत
calories
udyogon
patodi
guest
gopa
afsos
tajmahal
दशो
biochemestry
behaar
dall
gaaj
##agra
पसत
trick
##olic
tert
buudho
khareednaa
dindor
treek
##ocrin
obstetrics
machi
tarakesh
kaate
vedapratap
##यटर
rahit
enwoyremental
##वद
##boil
seraj
jayja
punitha
hepet
nip
narendramodi
yaadgaar
opat
prabhanshu
anushri
##etrics
##gol
abhigyaat
##मारी
suicide
goyne
vishnugupt
rambaan
रन
fain
badthwaal
manopause
cardie
patholji
kaler
jayatilak
arjeet
vireshwar
drugos
jhanjhari
यपी
krishnagopal
neurolji
axre
rediation
##ady
andocrin
murtiyon
##ragency
emragency
##yalji
vishaanuj
opathal
isame
formak
radiolji
immunalji
microboil
cardiolji
gastroentr
chipa
palaman
sanmur
cosmetolji
asamvedanta
theraputics
toxicolji
orthopedix
veerabhan
infomatic
riprodak
andocrinolji
saici
olternetive
physiothrapy
##baji
tuuti
foutela
dentastry
microboilaji
sanmurcha
pelie
gastroentrolji
pelietive
hemetolji
darmetolji
nionit
sexolji
saicolji
thrapy
##aitry
radiothrapy
##betolji
jiretrics
wairolji
podaitry
viniryalji
audiolji
androlji
dyabetolji
rumetolji
rihebiliation
vaisacular
anaesthesiolji
tertolji
treekolji
hepetolji
goynecolji
opathalmalji
formakolji
palamanalji
riprodaktive
saicietry
nionitholji
marks
sharte
ajendra
amalendu
audit
gugnani
bohare
beta
vyomesh
shibali
तकनी
सगीत
छततीसगढ
दकष
चप
रक
monit
econ
vishwamohan
hairaani
sappati
bardaasht
chhud
uddh
jhuthe
cali
raviranjan
sudhesh
vibhakar
rambihari
परिय
mahapar
##oranjan
परकाशित
coundal
chandalia
nicor
daansingh
shivesh
maldive
किशोर
mafat
een
##vard
वश
##endraraj
टाइ
view
jasam
##atan
somak
lakheshwar
khetar
##aanvkar
##रिया
pravachan
imo
पीड
ulat
##riyaaon
ramanayan
fakhre
kaliraman
taalion
krity
##िशा
tool
malchand
ate
##hikaran
paraate
towri
buaa
##graj
mafatlal
paheli
saamanto
rokade
indrabhushan
brijan
phod
shivdev
munafa
chithr
suther
##mens
likhen
parantap
himkar
khemaria
korian
shrunkhlaa
##porate
wala
limati
triyambak
thri
jalaram
sarokaar
padhye
jihad
pravruddh
devendraraj
caff
philip
binnani
naraayan
paayi
करगा
gargvanshi
shivendu
sacheti
nagarale
vyalok
steve
khetarpal
brijanandan
ganganand
brahmadeep
आरथिक
badkul
पजाब
gunjesh
em0ech0
katiha
katulakar
benivaal
vidhuri
nityag
lokeshmuni
relan
pahunchne
nagele
neelaksh
mathu
naraayanan
alune
vaidika
vyaavhaarik
vrishesh
mauleshwar
aryendu
rawatsare
dhaanche
nityagopal
vishwavaarta
argare
thaakan
karamhe
samaajadaar
bilore
vidwans
kamaljyoti
sheetalkumaar
thepra
anandashankar
kuchalia
anushikha
farvaha
samanvaj
sushameshwari
balaudia
chaugaanvkar
somakriya
chithravansh
bataaie
wats
muaavja
पाए
vyakaran
pramanik
run
anwar
phekna
vill
##लाम
##धरी
karaab
दिस
lekhika
welfare
padaav
##ica
sanbhal
mahindra
असपता
kamab
ellide
##waaya
##thing
ghor
डॉलर
deshav
badhot
sio
pahonch
चलत
##irpur
begus
shetty
rha
##ded
praachaar
आता
##nir
dashahra
besh
एयर
asad
partiyaan
rone
ramnath
sawari
templ
##ublic
romaanchak
boyfriend
##jaal
sien
खतम
quotes
चरण
uteern
vishram
shring
##yue
intelligence
thailand
rashtra
rakshabandhan
chuppi
##ahab
unhon
##abhumi
##samand
mahange
khushkha
uthakar
motorcycle
bauddhik
##याल
##rita
vempti
singer
when
utane
trin
barkhaast
rakhenge
subjiyon
sanlagn
अरण
beauti
laai
lon
dangon
trol
tax
kasganj
ararabi
shami
sambodhan
debyue
abhiyantaa
अली
##nakram
cheekh
kansal
वयव
mom
##aisi
tabd
ganv
echbn
##upal
##tone
##halaa
virtual
lohe
dark
todakar
socity
fifa
glass
सची
alg
paswan
prajati
ujjwal
##ores
saiyad
##vis
case
begusarai
##gium
##70
ly
pahaado
##anij
mahayor
parinam
contacts
##uzar
lai
kehalaata
सतरी
ekatrit
yachikakarta
जॉबस
poj
jansatta
parinaamon
नवी
dukaane
##tare
sanju
kharide
days
gadhe
##sis
गरी
kochon
##राइ
rou
जलद
अफयरस
जिद
masal
##angana
gonda
govardhan
सहित
हिमा
sexual
purvaj
vampanthi
bombai
photograp
places
hissedari
anubandh
##vaachit
##egein
katai
upgrah
चत
rajsamand
kamabakht
udyaan
stars
weekend
विकलप
##hatak
सतय
bharkar
laj
##akaa
doordarshan
phans
sthitiyon
jaateey
फायद
paisanger
ramlila
bataao
sonbhadra
fort
reading
##मस
heroin
##aster
##ankshi
neenv
darshata
bhuk
prahaar
kate
##aishi
kadar
praja
language
##lak
bighad
tiv
grahamantri
trivendra
kharchaa
samadhi
maran
corporation
पडा
tabadalaa
lake
earn
gunag
हमन
jangalon
horror
##counter
badhaate
##agat
australian
episode
##pressant
bachanaa
parak
##leen
jamshed
iss
govt
zimmedaar
##shiv
exclusive
##xam
thakare
तला
swarup
nirdaleey
pujari
baadhya
praytn
utpaadak
puuch
paliwal
lock
citi
##aapti
paduk
चौधरी
dahan
maandey
नरदर
##tri
विवाद
flite
lautaa
jalaane
safaltaapurvak
janagan
fati
##cept
chuninda
बयान
tuut
kabj
paali
बनी
sadh
परिस
opening
180
visheshkar
sirsa
सामगरी
##िकस
balance
rivi
chaara
जयोति
gid
ajam
imaan
rogiyon
##ताल
vayask
chandauli
pahachaan
jawaharlal
rhi
लगाया
apano
asth
anukul
डॉकटर
डिज
dikhte
pahana
oopaadhi
common
vyarth
varcha
##saad
##hotra
noton
garima
nabi
bigaad
pmo
isa
promo
meetha
sajag
kavyitri
कमर
ilaaka
1857
praasangik
उसस
pikar
gadakari
damdaar
परशासन
need
todaa
रहगा
##पकष
##gency
##avastha
manachaa
dharohar
udhaas
mahagathbandhan
karwaanaa
udhyam
jade
sarkarein
##ader
dinadayal
paneer
ghate
shikaay
ringtone
ambul
lekha
bahusan
badhaaye
golibari
खरीद
##psc
mexico
anubhavon
paaegaa
samaapti
जगत
##bane
##ison
naukariyaan
danga
matric
shaadishuda
राषटरपति
amejan
jabardastee
##थि
praayah
हाई
##urn
krur
faay
ghatnakram
दखत
loha
बला
bismil
uttaradaayi
sarpanch
aadar
vijayi
##jection
haive
env
##vardhan
##kool
samajhakar
rasinic
##तति
applic
सलाह
samakaleen
shikaayatein
kelaa
arthshaastra
##jun
ghusp
##shtha
bagpat
उममीदवार
ipies
khujali
##rutti
##adhari
dehshat
paryatak
nikalataa
virodhiyon
rahengi
thandi
naga
bans
##aru
patn
बलॉग
parash
##usa
angon
gala
जट
##adari
विशवास
साइट
फट
becha
siar
jungl
youth
jum
patton
gab
juthi
विजञ
christmas
lambit
##plus
antibiotic
dabaane
chart
मौक
dudh
achook
सवय
shaakaa
jen
reeha
shila
alai
sarson
pataakhe
planning
##ayad
scri
eel
admician
1990
prayagraj
teev
##nt
brouzar
adhivaktaa
##atiyaan
legi
##odhak
badnaam
durgandh
yogendra
##eshon
bantwaare
khojein
##rai
##lian
asthma
did
affair
daamon
karg
kharidi
naag
wing
आतम
rss
मगर
dist
rishtedaaron
kulapati
##sthal
proces
yugal
tower
ajna
आयोजित
janaganana
pura
jaruraton
selary
clear
choo
santon
##see
ghanti
mahoba
anumod
हॉ
शायद
##धित
##stin
pahunchate
कपर
durust
##उट
politics
गजरात
परकरिया
##तल
##uungaa
varchasv
kholkar
esbiai
teevr
junglee
sama
chunautiyon
जसा
dawaaen
padukone
chaatravrutti
tuutane
अपडट
important
praachaarya
##sed
khapat
adhyap
आयोग
##esha
pratikul
ghatnasthal
maryaada
enditivi
शन
बहद
parikshaar
mahanid
lahanga
ladaa
active
##asit
ammaa
##ootha
##sel
sarp
tach
शान
गरम
senaanee
document
nakaar
##lete
maathe
avatarit
their
kalyan
pakkaa
##aatha
##jio
leen
tet
lahore
इलाज
शा
##65
सरकषित
री
corporate
गोल
mohalle
gurjar
akasar
##लाल
aayam
career
minister
t20
parking
kriy
dhoomdhaam
chaaku
ambala
शह
libr
thali
##arnon
गति
##28
##27
hamirpur
chikitsakon
गराम
tukdaa
##late
letters
मॉ
republic
##षणा
mulk
नक
sanya
bhos
haseen
khw
sanyam
##veshan
##ikiyon
lunch
cook
सधार
lagav
pahunchin
##ायल
##ahani
##ashish
मारच
##दाय
pedo
malaysia
durbhaa
hinsak
vipan
details
##odashi
suniye
kunwar
##a¤¾
dhani
tirtha
sambhaavnaaen
prakash
thahar
##aten
dikhaakar
requir
abbaas
oh
अपरल
lamp
##aayega
dizine
prince
khaad
##चारय
palapal
paanchaven
parikrama
bahishkaar
##टट
chhathi
##adharm
ambulance
paudha
munger
stetus
farsh
करिकट
dukhad
bebfa
guhaar
sangya
mahasang
lib
##agari
##hale
age
naabad
anterrashtriya
ulta
hec
अवसर
ससकति
ayyar
paribhaashit
vidwaanon
insulin
tara
sarvashakti
##verti
##word
jose
chizein
##uvan
पहला
rama
url
nurse
bhas
गलत
dilaai
uparasht
way
##adev
semin
richarge
hazrat
khushkhabari
kings
sajiv
bum
सपन
दविवदी
##dasha
##pp
##loy
jord
alvar
awas
baharich
havai
anaar
##eevan
हटा
cvc
daalana
poochhate
daakhi
shwet
अधिकारियो
##tm
##cchar
anganbari
malhotra
30000
दकषि
फॉ
prashikshit
tabdeel
aagaaj
अभियान
दीपक
dest
tumko
beeti
hunar
charit
##ppa
sann
against
gren
timen
deshavaasiyon
angrej
nasa
inn
sangyaan
116
##xl
uparashtrapati
squ
gair
misr
##hes
##ालत
bajrang
ghol
eelpi
dwip
1991
esai
##lem
350
##odhi
##avin
mate
मका
maalikon
taskari
president
फसल
sati
hode
##navi
roz
##sid
mukademe
आदमी
##karo
tabaahi
##णि
##िब
berozegaar
shasit
vyateet
bhubaneshwar
bikne
1996
arji
##ick
khaasi
वापस
##patiyon
visar
half
harek
want
maanati
bahusankhyak
nikhaar
lagaav
chaiyn
असपताल
aamane
fli
saaha
ou
mango
dah
गद
##ohak
पाणड
tutaa
mahaparv
nilaamee
bacteria
laat
cabel
##inent
fah
mahaamantri
उसम
सितमबर
##haney
vetanman
##aanusaar
avsaad
smarak
##oes
##atisheel
parsh
##ahati
prayukt
citon
riz
merit
upendra
satarkta
kamala
durbhaagya
##kshaw
pase
12460
गौर
##agon
bedr
islamabad
##टरोल
##hapit
मिनट
sajjan
chhaa
##arapy
fayde
राजा
silendar
##uudhe
##athic
##abu
unpar
dhvaj
tray
##ततव
sahabhaa
palaayan
jaav
यानी
aakraamak
abu
samajasevi
बढा
pilia
##धिकार
##shesh
शव
dubaara
तजी
aniyamit
mirza
##vash
ign
nikalakar
rome
tezi
##oti
reliyon
vaibhav
divaana
rakhiye
law
khajur
estate
शी
chanchal
santulit
quran
##witiya
##atak
conne
sarwar
##खी
chemi
uddhaar
##shya
dawaai
vyaakhyaan
कठ
pradeshon
ashv
everest
1999
wordpress
finan
varjan
##inc
hont
vivash
##colate
silver
shraap
मनषय
service
celib
255
drink
shankaracharya
गठ
sitare
rio
maanakon
##rus
kharche
kushinagar
abtaknews
robot
bipi
pradooshit
angad
आती
balidaan
waha
khilone
jhagada
##sen
anupam
vipanan
alm
mes
shakl
tharur
vachanon
chahenge
mushkilen
पाडय
anokhaa
shastreey
prayag
चदर
tyoharon
prakaashak
##alok
youtu
mukhyat
dharmon
gailar
strike
chautaala
##vant
##कीज
baayen
asaman
betiyaan
folo
lar
jamshedpur
pers
adwitiya
हिससा
prativarsh
toli
नवमबर
shrimadbhag
##ungi
1975
bulandshahr
isapar
upeksha
deaser
panchak
पीएम
mirzapur
##raayen
chandrab
machhar
rangeen
vinimay
##cture
##ashay
110
##rutha
ghatak
friends
##uchee
sangitamala
galaxy
indv
jhak
pratishthan
परद
##sr
galle
manaate
जोशी
गरामी
badhottaree
shin
नकस
pragatisheel
natural
bahaar
##naayak
irsh
cells
##भीर
baagi
dipavir
bandargah
##बो
amarnath
yashav
dating
pulicekarmi
##here
clas
jahan
pancham
vrid
bhaavnaatmak
rachanakar
##aayin
sikke
लगान
narebaaji
mahr
patanjali
कपन
##लिया
filter
megapi
deshbhakti
ahim
##णय
swabhi
praatah
nausena
kahawat
khelnaa
tau
खड
##saali
adhyadesh
clerk
shilp
pilibhit
sambad
homeopathy
topi
हमला
गरामीण
depressant
gaand
jalandhar
bengaluru
shringaar
sarvashaktimaan
##यास
##pto
ravishankar
fouj
keel
gendbaajon
encounter
सकर
lips
बनन
परवश
nirdosh
mahmud
अतरराषटरीय
##prav
##ahare
bedroom
जसी
satyam
jiya
vaf
brahmand
##hence
##gul
##mba
mauk
##िसटर
deve
##aayegi
घोषणा
##hran
maai
##inger
avishvaas
poly
ballebaajon
पकज
##jri
dikhaanaa
##uva
hiskool
लखनऊ
##amaan
infe
आतक
ajaharuddin
छोटी
aropit
ककीज
ghaataa
khajaana
##ritti
gailaree
kaanoon
leftinent
sanvida
amrutha
अगरवाल
nouj
##डकर
rekh
lucky
saavant
ajtak
khushiyon
photosh
tanks
##daayak
noujvaan
##field
andekhi
hira
soochi
किसानो
naitikta
drama
simaaon
maharana
sabhaa
saras
haavda
bread
sakhti
2020
alav
childr
script
weight
blu
shantipurna
##usuf
हस
##therland
dephence
अभि
pota
ghaav
मिलगा
##adas
vyaktiv
goon
vyavasthit
##aade
aaaj
rug
##aga
##राध
##warej
##ranath
mapra
vibhajit
waisi
gradu
pratibhaagiyon
raakh
saunpe
कारर
then
भारी
sale
chemical
##aleva
manok
करान
##tari
spardhaa
चीज
##hori
andhera
gande
january
argent
sabun
sambhd
##abar
zimmedaari
massage
varnit
utaarne
##fai
paseene
hansane
nu
mangesh
सजा
sadhano
aaajeevan
john
written
laf
##arneey
daraar
##haayenge
kavach
aavedak
pregn
##ams
##atr
hormone
rickshaw
haas
avlokan
hamalavar
##cm
##ushthan
beautiful
खरच
morisha
##थम
kek
campus
bolta
jepi
sadbhaav
mohalla
saug
moon
##purti
chetan
swaam
conf
kaaj
danda
naksh
motopa
baandhakar
##fornia
settings
principal
##pisi
nikasi
mohit
##pg
aadan
romani
kaich
fansaa
iem
sibiti
चाहता
##styli
परवी
सडक
artiai
jubaan
इटरन
##roton
commission
वरग
##cham
छातर
sevanivrutt
सभा
##एफ
bandhane
khoyaa
jaivik
majaburi
adda
##ताप
reci
chakke
sahjan
utthan
dincharya
पसतक
##mith
haaavee
##rih
wit
uttej
shabdaa
jahri
sine
piechdi
gaajar
##pot
taliban
ghaney
aadarneey
काररवाई
##कतिक
##vej
kawarej
kiskaa
third
लट
tala
ghoose
parm
##aksheeya
gadabad
abdulla
morishas
nazarand
bc
been
alover
jaanaleva
haddiyon
painting
mashi
alovera
chitron
comons
chalem
bhagane
roopon
pind
max
भमिका
रहती
template
acces
पाणडय
biji
parinamswaroop
alavida
फीसदी
mimi
insaaniyat
padhaane
बधवार
pilot
अगल
oonche
##eepi
khas
##vansh
shabdaawal
##वयवसथा
##haapan
##asm
sulabh
najdiki
khaansee
cbse
##kong
##zz
parikl
panchayaton
janprat
paraspar
official
kesar
produs
दिखाई
##khla
विन
paayenge
##ातमक
avasaron
think
##sius
mith
ubaal
##uns
nile
avadh
##लस
ankar
pramuk
##anja
kabddi
parashuram
pasinaa
hajaare
accident
ref
##mall
bio
##giri
insp
lowki
kaanon
hidi
laganaa
हरिया
maanavjaati
andhvishwaas
sb
mahanideshak
packet
##round
shuruuaati
##75
true
jatvaad
badhaata
##dal
##aharaa
dange
खला
aapattijanak
pattiyon
rashmi
जनवरी
##कमार
eta
shilan
nateez
##aging
parli
iraade
davaa
apnaayen
version
सहयोग
yashavanth
##less
taf
bhagwan
##bexam
सोमवार
seminar
##karee
##lace
experi
nek
zam
dooshit
mare
वासतव
ulj
chodi
acidity
##विश
auk
##बित
pmoindia
aavantit
##puram
nibhaayaa
##tho
awar
skill
sagaai
sakane
belgium
cup
aandhi
परिण
viipi
janpratinid
khamosh
upanishad
mubar
tantric
vansha
जमा
##a¥a¤
गाय
पतरिका
maati
शिकायत
##फोन
surkhiyaan
##wor
tauliya
सिल
नारायण
जोर
##hua
मारग
musaf
junun
##aaf
navachaar
rrbexam
chihn
sop
inhe
buv
javaab
taral
##ानीय
pukhta
faad
udhaar
mulaaq
##ganth
अतिम
shankh
jhanda
अमित
##varg
vicitra
sazaa
##वती
जिदगी
nirnaayak
धो
mishrit
mahoday
naashtaa
##नाक
coll
khauf
deraa
laate
सगरह
sabhaagaar
varjit
jeevanstyli
बाव
##elo
mens
1500
mys
technitian
oxi
nite
valmiki
गिरफतार
shilanyas
4ji
formet
##64
##ikel
rashtram
नट
rajn
maratha
ठाकर
##jivi
nikalati
bhansaali
parents
puraanon
##vaisi
kriyative
shel
##29
gru
##hinee
##asangh
140
sandhi
kamaaye
rol
uthte
muhan
##ayu
even
ascharya
kaans
##astra
talaashi
##dhari
qur
##ushri
nateezon
shabdaawalee
##ochan
nakad
hathras
##माम
qatari
##पस
khilwaad
##ruary
##mara
सथानीय
##burg
kathinaayee
ekas
hiku
##दरा
gaanon
ugaai
anokhi
##lor
lakshyon
dukandaar
naha
rashtrawaad
sare
dhanya
##तियो
##uunga
linaks
लिक
keh
##apan
jism
equity
juda
saali
parajeet
lagaam
kaansya
bhoolen
anushthan
##पट
panchang
lach
##akariyon
mashiinon
alike
whee
bhikh
bakhubi
labhaar
enjio
pakadakar
unchi
akhaa
itna
bahane
cameraa
honda
mithe
वाह
chatar
##ियत
##dard
chathe
कदरीय
ascharyajanak
femes
apaar
sulajhane
iaiti
speakupforsscrail
indvsa
##थर
konaa
brig
karoge
##ayi
mangeshkar
गभीर
nawab
basaa
restaurant
kaaryo
samuchit
adhikrut
hausala
मजबत
sambhal
faili
nist
##vertis
1993
##boojh
algaav
इनक
hejal
chalis
sahagal
anushan
shumaar
chaahane
duulhaa
tags
kramash
mutual
frend
1992
##sing
##taz
jeevon
shyamala
iraadaa
bhajanon
shamali
phar
shiksh
kushti
kinnar
pavaar
##erat
##cement
pn
paridrishy
sail
परमाण
##cor
आवशयकता
mount
celsius
falswaroop
join
##ilip
tibet
pramukhataa
दध
bsf
gambh
karna
आयोजन
yatha
faiz
vruddh
shivaratri
ng
परशान
##ayen
kele
राकश
hectare
mulaaqaat
lagan
development
circular
haha
table
mub
##saro
kaarkaane
bacchiyon
##रास
finance
किताब
##peksh
windo
bhugolic
sabsakrib
##साय
हक
ei
tapasya
asthana
##jam
idia
atribution
##ौल
##दल
vaaleen
##ushtik
protected
narak
##rasij
nyo
sachet
giloi
chikan
neet
inhi
bakri
chocolate
यदध
janme
##शील
aajtak
tadap
bujur
roke
sune
उनस
emb
##bhanga
jaev
मिलता
ashw
राजनीतिक
##laapan
##otra
निकाल
upyogita
sangathit
jaanboojh
jakhmi
vigyapan
laavan
mubarak
परिणाम
ireland
narsingh
dharne
yamraj
bhugat
##atra
bhadaas4media
raktchaap
हन
danni
interview
gambheer
diarect
pahunchaaen
khatter
kamaye
dane
maharaja
pannon
hoste
शकरवार
aanch
परमशवर
taron
सवततर
buvaai
sangyojan
##akaar
siai
##scope
परशन
##रष
hani
communic
california
dinabhar
resh
beepi
##upta
lol
##pratap
##69
seet
dikhi
##ned
momb
karaaye
laddu
##योगी
aushadhiy
##जनस
prakaashanarth
fruit
##kaalay
##diu
piya
baq
sms
najuk
kanoonon
##ahon
reco
trinmul
##yatan
sarokaaron
rajiv
netherland
urjit
gani
bhavi
yphone
विधायक
ludhi
##avaanon
##नीय
##सतत
##asen
##dweep
lifesti
कदम
trayodashi
vedon
jaankariyon
##uts
hamare
pariklpana
bijanour
##abharat
takaraav
मसलिम
##waaye
indraj
##ramanyam
rashtramandal
dwiadhari
lifestil
cop
shikayaton
holik
##yanka
dakhal
सपरक
s9
albert
kahal
##ano
hina
दरशन
##ujanon
##weep
##els
##asin
bolo
shramikon
praav
चनदर
meha
अथ
आशी
##adow
##odiya
moolya
eksrasij
laaye
##aguru
likhata
pustkaalay
effects
piskar
ghamaasan
pratispardhaa
haat
jyesh
nok
परय
ragad
दग
temple
##ando
ghoomte
applai
total
datta
jhaad
रकषा
##lej
##ricket
immer
rakshason
sikhaa
खबरो
ghatit
नागर
dharmanir
chao
दोष
gayan
bataaenge
february
##yay
stem
बाबा
malaika
hoshi
bator
उददश
##bhai
मशक
aayoj
##iyaali
मतरालय
api
kachra
its
nanga
manshaa
heal
discount
nichali
usapar
extra
##ago
4000
aparaadhon
##eshik
allergy
nipah
##jak
##wadhan
upra
samak
juta
apanaa
andhkaar
##udiya
sikhaaya
##tent
devar
megapixl
डाटा
बदलाव
299
##oodle
them
##ders
sarvaprat
##hah
filon
embi
padmavati
gond
madar
jer
kramank
कारो
gogoi
##ojit
##aakrit
##kht
jansabha
myth
ससथा
apadats
najaara
##ustika
sarvapratham
##चय
baarik
input
##heri
alum
sunita
aatmak
##inat
electricity
preranad
##bus
pravaas
airlines
asaram
mitha
चढ
eke
jhun
haalia
राजश
khooni
dheron
samitiyon
omprakash
nasee
दकषिण
swabhimaan
kaajal
camb
maje
गौतम
##angaa
sangrakshak
dise
##विदयालय
graphi
tatwadhan
mangalore
##oonee
##undh
##uvi
istife
bulaai
vilay
lokation
chamatkaari
paushtik
baraat
vinamr
##ines
darpan
vikhyath
ishaaron
##time
nanak
jutane
##tipur
very
##फट
holikaa
eent
लकषमी
sambhddha
bahum
nyaaypalika
scienti
asaar
chhodana
ahankaar
captaini
##baj
##िषठ
angika
praaan
ooch
इतनी
##रप
janamanas
##झा
##inary
fresh
carmik
darbhanga
apna
sib
3000
adhiveshan
pahanengi
thanadhyaksh
##ogar
lif
poshaak
मगलवार
mejabaan
bundel
bikher
self
take
gaget
namakaran
##77
चीनी
##ester
aarogy
jataate
fatkaar
phatak
##ido
##prakashan
sound
kaanp
kramshah
updated
##vertising
tainaati
janaab
vazan
pashup
seg
##des
##ken
gyani
chamatkaarik
oneindia
##adeshi
ravaiya
muhaav
tambaaku
टिकट
small
##gaye
traas
achch
ramaj
जमीन
chih
aniy
aayenge
bied
##dhaanon
bataakar
pon
इचछ
spikar
chupa
begum
manobal
esemes
##dwand
recipe
kuchal
jimme
jhandi
viraam
niz
requirement
##aahat
pang
##daari
bail
laavanyaa
##post
spash
##ganana
maaikel
yaan
jaldbaaji
900
seve
##aphone
uplabdhta
paayen
##asant
samyojit
sanskaron
namaaz
##baba
patil
##arey
kalah
गस
antaraal
children
हिसा
culture
चम
baghawat
yod
jhu
avar
bhil
wwe
##prabhav
टसट
janmabhumi
##utiv
thomas
sd
सपाद
gini
padam
haisiyat
##adee
baithte
kothi
naram
##शर
soup
cold
barmer
इनह
आसान
##idev
##aju
circuit
##ashaad
chack
mausi
samajhadaar
विवाह
9999
ishan
उपचार
aulad
तारी
##indi
jame
barabanki
bayan
kaidi
ghusane
mehafil
lash
kamazor
bitiyaa
patibaddhta
पटल
samudaayon
chhuttiyaan
सीख
chhuttiyon
अमरिकी
##kaav
##zing
उततरा
pratidwand
mahapurush
jigyaasa
application
utari
marriage
##eden
mene
जाप
##rana
topic
ghatiya
chamakdaar
##arpur
chauke
##hydr
lagaataa
दती
awasaiya
mahabu
##ankaal
satsang
att
loss
gd
totaka
##uchar
kavayad
beli
daaved
maayke
mother
prakriyaaon
paro
git
joro
jaayengi
sattarudh
balb
saharsa
ekikrut
chaudaa
dhur
puraskrit
snatak
कारयकर
kaccha
नकसान
##adhy
mansapeshiyon
##uungi
kroeshi
uplabdhiyon
amarinder
##सित
patali
sidi
barb
namaaj
maovadi
##athon
##panik
कितना
taxi
naya
bicha
ghataane
amaan
chatarji
saaman
tamaa
jewel
material
fitbit
anjaane
rajnikant
##aayegaa
ghrin
जागर
mumtaz
नाग
quick
panne
##ादा
##enez
country
dikhaata
##undi
##ctionist
##japur
snatakottar
aniyantrit
##जना
अजय
jhaank
aksham
जाएग
apple
bolti
kaarobaariyon
seetaram
pahanakar
##ui
जीव
sakshartaa
aadaton
isha
type
spinn
##olt
कत
medindia
chhipe
samvaadadaataaon
##gg
discs
dallalon
mahabuuba
mahaprab
niraala
gaiyrkan
##sho
padhen
vayas
##mbab
दलित
चित
stream
dor
##शिक
totke
maanjhi
venue
##akarma
##aapak
procesar
galtiyaan
uu
##las
patidaar
rock
jigar
swaamitv
ispaat
peso
##acheen
uthaaye
tatpar
booti
सिनमा
nagn
कॉम
capchar
अखिल
mahashiv
athar
##ande
##umbh
kast
##mochan
parfectionist
mera
chalaanaa
dhandha
kron
rece
woh
bakrii
smith
##acheenee
madarch
yajurve
##mash
moolbhoot
##3300
##ashala
sambhala
keemtee
समिति
photose
faile
##cos
##टरस
bevak
incre
##कय
vaasana
barbar
gaiyrkanoonee
shlo
##रतन
supremeo
navabharat
condom
##jod
naale
##haana
chane
##oongaa
eni
##sif
tagore
dalacheenee
december
bundelkhand
बाग
##ubhuti
##mbabwe
##चक
##ivipi
kaalpanik
jhande
vodaphone
saud
##ured
deevaaron
wild
##wealth
मशकिल
dead
chaatrasangh
maharani
university
rating
##ym
nya
असर
contest
jaankaron
##atnagar
##yatithi
##adin
##ितय
dhiraj
##opment
योगी
prasav
siarpief
devgan
परोफ
vayaskon
kaante
nadu
##umari
nikaalnaa
ral
vakeelon
##jot
miyaan
##unik
##rain
eu
ईमल
वयकतिगत
iname
वायरल
आक
masalan
vidaai
punarprakashan
कॉलज
khudaai
maatrutiv
kaaleen
टीवी
मनो
desho
nirmala
sanyas
sabse
tirangaa
hoge
crore
rihaai
arthritis
##au
capital
shramik
vashikaran
##ruction
hazar
dino
therapy
##halan
bhagavad
daha
fore
prahl
kathinaaiyon
kargil
unhi
समत
fut
milaane
##mish
oxigen
mufti
##bodh
munshi
ardha
##ताह
jindabad
##विन
##darshee
shloke
deol
करगी
रोहित
##ॉय
pink
pharma
##नियर
##रति
uun
naap
¨sah
##vaari
gathi
bikhar
टरक
gandh
nirvaachit
sharnaar
samakaksh
##ातकार
##istry
toun
##aaraon
doodle
hay
rathod
muvies
dushprabhav
##विध
sugandh
akashwani
bood
##ooj
abivipi
shilpi
magh
##ky
hardware
##tek
samastipur
hawking
बावजद
##tional
aanwala
kel
##rangi
vishwakarma
ekaa
दकान
##onaa
pradaata
mumkin
##aphe
##arekha
hukum
adhyatan
##330099
##astr
kansaltent
maukhik
##pf
अकसर
rout
##aiye
##alekh
rubaru
sour
##aghat
##inga
##aband
पाया
shodhakartaaon
gaate
##aswami
##विक
##धानी
bhejkar
सभाव
##raat
9999330099
bokaro
##bd
##aaish
walk
ubar
##rishti
gagan
lipi
nigah
upayukta
yaden
##षद
##berg
tes
sthanantarit
satyan
memo
##wanath
champaran
##12वी
तभी
##upadi
thagi
mc
charging
##षम
sookhaa
##akshata
ahimsa
बीमारी
##bc
बाद12वी
munda
biese
matganana
pist
filma
diamond
honor
##राजय
jaik
lord
dhaaraon
results
sooch
naat
ghun
kaanch
##waali
आखिर
##धयाय
abra
##luk
phenkane
##ोरस
##bani
mahraj
##51
जाकर
spashtikaran
gallexi
grant
task
समारट
musafir
prut
banaayi
these
scrol
shrota
kshatigrast
हरियाणा
##ोस
lapet
मकत
dooj
pranab
nc
dhamaake
thag
deepi
poochna
beij
puraat
पालन
driving
##abaa
sitara
थोडा
pahunchnaa
##vaadee
bhaavon
texas
##mming
santushti
value
immergency
parfor
##qat
anar
assi
karyaalayon
viraj
sambhaavnaaon
aphis
##world
verient
##cia
##तीय
##bile
dijipi
sadanand
ukraine
kris
hariyaan
vilamb
nashi
ritair
create
rier
##wing
sisodiya
##opic
pha
महसस
which
mahrajganj
kuti
vanij
##ajay
angel
रविवार
anuchit
समरथन
dollars
खिलाडी
ladaaku
poojya
anda
mantron
dhundne
shrotaaon
##waystudents
##lio
vigyapanon
khulaase
gaalib
##bhog
kaho
nistaaran
chalaae
106
cut
pahila
sweet
##mic
tender
##court
socal
सपताह
footage
khandan
##tice
shayan
veerta
phenkaa
##chen
##वरक
stant
##charit
##ints
faruk
aji
prashans
ankush
dhyan
2022
matra
music
वरतमान
##fat
madarchod
ketu
prakhyat
##arie
sushri
anekon
##dan
##oice
नदी
##ajaat
krash
##lap
rohtak
kishoron
##hapati
hapur
samooche
rrbexamd
pandrah
koshishon
##gard
##haakar
awaren
विजञापन
buudhe
jyotir
##ahu
dangal
draupadi
##थन
dharmashala
rest
gya
asthaayee
##हाल
nigaah
##37
garma
jhootha
जिसका
थाना
karakar
yues
umad
muslimon
hamid
lataka
dharam
ikla
archi
##chaari
judie
daad
##grade
##gia
sunahare
##shall
पौ
rakho
namo
terminal
ghrinaa
hamari
kosha
dhaniya
सिक
mehmaanon
shouch
umrak
gulaami
##ayati
bechaini
conect
dana
shubha
##ser
chikitsaalay
alaihi
gaatha
bajkar
##ctivity
frem
sanko
mahatvakankshi
jwal
lou
##mukhya
baja
nadiyaan
##दारी
##89
सदसय
masaale
iesai
##bhuti
chaanbin
हवा
dwar
nikalnaa
karawas
charges
परथम
ससथान
उलल
##aph
umrakaid
##aavashyak
##shila
ot
kriyanvayan
##पतर
##hasha
season
##jna
marate
paash
##hambi
verde
पसा
chutki
kichan
abhas
sakriyata
sthai
##कारो
##arm
bhuul
parag
kapaas
शिकषक
aataa
maton
uddhran
बत
cote
jyotishi
1980
chashma
ajan
maatrubhaa
yoddha
argh
##vedan
aalochak
जि
lalita
निवश
remote
badhaai
##darshita
honkong
volt
vanijyik
mainpuri
kaushambi
chaoupal
failane
सवाद
##liyon
##apra
##badal
praaanpatr
janas
##यात
jaisalmer
अदा
pahunchataa
vaktavy
##34
apari
activ
kasar
sahityakaron
गरह
oochaal
##पना
सिनहा
ander
nimantran
screenshot
miz
paalak
chaturth
##vers
सीट
jidipi
##रीश
tonk
scor
##watt
##रजी
सगठन
leg
deveopment
सारी
##काल
##pattiyon
abi
pakadi
##मोहन
rachaa
नयायालय
पढन
adhyapakon
argentina
andro
airways
नवीन
##chaai
baniin
सतता
vaartal
request
got
kathaayen
lambaa
yuan
##gadee
##lein
hindik
##fari
ताजा
karaaen
##chaiyn
zaahir
sarovar
machaati
bhadohi
zimbabwe
आठ
zuk
gayika
bechaa
सचिव
pratirohak
prapatr
सटर
pig
khariden
##मना
insaanon
maatrubhaasha
apekshit
rohing
badboo
hariyaanvi
दिशा
##vaalon
though
uthaaen
hataakar
karanevaale
yes
महारा
charter
complex
cobra
vaartalap
शनिवार
##9933
delit
paashchaat
thai
campan
auskar
पडता
nahaane
tipu
332
kaaya
irfan
prabhakar
kaph
tevar
bandhak
chadhakar
normal
##riff
करवा
अनक
यजर
taras
domin
##aankit
shamashaad
sthirataa
maahir
bhadaasi
बिलकल
खाना
##परिय
nauj
##जनो
nanda
ibi
##arts
bhigo
bhima
##तीश
vidyuti
dakshata
kant
hariyaali
hastiyon
aalaa
chhapi
option
transport
akali
tukdon
रजन
polytical
bhut
##oraa
फरवरी
पाव
duub
##raland
apekshaaon
##waari
farsi
sushmita
ludhiana
##fy
andride
auki
premier
surang
dinaar
rupayon
hala
##pu
chandani
java
kapi
dag
industries
paytm
manamaani
bhatti
gej
swargeey
murgi
tehseel
##eline
ekasaath
nolej
banavaane
tanushri
bismilla
navjot
ishaare
bhishma
दगा
godh
chahe
sande
infections
hald
badalata
zarie
bangladeshi
uthaai
rajanetaaon
crores
##rith
##ayake
##kula
##ety
पटरोल
चौहान
pick
pahani
##rong
punyatithi
pushya
taak
rig
gok
bayanon
reality
sankh
jua
##hako
havan
गगल
biratnagar
pojishan
##ogareeb
jog
अहम
garbhashay
##6640
sango
##rakhaav
##md
haare
kamaayen
##gratha
turn
sahas
tivrata
bhaga
brahmanon
karani
समान
##बीआई
myste
साव
gadde
purvanum
infr
surakshakarmi
sunaharaa
886640
abraham
8866409933
shriniv
dwipaksheeya
##ume
paardarshita
vallabh
gori
taang
hindikunj
vail
मातरा
##sarp
homeopathic
शरदध
khwab
oparating
saahani
ear
kaamuk
bahot
mekar
khudara
जमम
##upi
rakrakhaav
##raditya
madhubani
kuraishi
##urppa
जयपर
investment
sroton
phule
ajeebogareeb
namoona
##nivesh
hub
tehseeldaar
कोल
kagaz
furnit
vardi
1997
aadaten
khushhaal
##sharopan
faai
##poration
pradarshnakariyon
कोह
paashchaatya
##रीज
अकष
emir
sunaate
aakanksha
etc
चाल
##strol
pimples
##amit
मोहन
brihaspativaar
hatke
dharaa
jedies
sweden
wish
impro
mysore
##padi
dengi
nazarandaaj
##kis
kray
anupast
kori
##mukhyamantri
sankranti
##0si
guid
nishtha
bujurgon
##dhaaran
dire
federation
chappal
##atia
जरमन
vel
khatam
sakshya
ovaisi
मिलगी
##antrak
chhapra
##adevi
karmon
बहन
gudgaanv
preranadayak
lg
रिली
सयकत
##a¤¾a¤
खात
gire
sashast
kanchan
rifl
asaadh
##joy
rohingya
message
##tica
manar
sautan
rishik
bumraah
chahal
##aaza
##घा
मग
sui
poems
debit
raashid
moolyawaan
sochakar
saroj
##aptr
laag
chhipi
बजट
superhit
##vaigyanik
furniture
##shahi
computing
scan
pareshaaniyaan
728
kritrim
##arun
het
niveshak
##aganj
##yanvit
वरिषठ
abhaa
##itech
##jub
##inian
उपाधयाय
kholte
sangoshtee
shakhaon
##abaddh
strimming
##शय
talent
rawal
##ught
##िटल
##kkat
koti
balrampur
dante
##kik
switch
gathiya
दौ
maaruti
paaydaan
ghire
लोकसभा
pheng
वरषो
stro
jyotiraditya
धम
aadarsh
nakhun
bhagava
bear
saahasik
anguthi
bhain
pok
female
vriksharopan
##reta
utarkar
mithila
praavdhaanon
##परदश
welcome
##nil
rahat
vine
nange
##wahik
arghya
jarnal
return
##atik
paaltu
yedi
##0di
##hron
sikar
370
jeevant
cashbek
koot
bitaane
label
shaw
##geen
##sive
trip
##ulla
thappad
trending
pent
##yogi
hisar
7th
suno
practice
dharawahik
toll
acro
##esel
sunaane
aayush
rie
diar
sharada
एप
rhit
घरल
सबधी
raghuvar
avad
एच
##gerian
sadhate
chihnit
sabane
मौसम
edvertising
ausatan
शकला
ideas
नताओ
hajir
patra
##ितव
varsa
##zeb
toofaan
फार
dhol
सनवाई
rashtravaadi
roadways
##aajon
##rishth
रिलीज
upmukhyamantri
##apatr
aashwast
##avaale
दखकर
damaad
wife
चितर
गड
##lev
##saur
ballab
पहचा
bangla
लब
baraha
अथवा
prachaarak
hilaa
जाति
gaadiyaan
उर
jeep
asaadhaaran
1971
danniel
visarjan
anban
kann
khoji
jaaoge
hold
dwesh
allah
secre
chittor
परतयक
shitala
dudhwa
104
khudak
jutaney
suspend
amro
samajhen
chithran
vimochan
fahr
ching
saraahneey
user
darate
shaury
sharmas
##ayogi
jordan
daat
sankshep
mane
anupaalan
sivaa
mineral
chotii
kumaun
dibbe
रवि
kathaon
hansate
feedback
employ
mukha
##aavart
kale
##enu
ilaj
chhayav
impress
##udra
kalakatta
samajhi
zile
##qe
परताप
salaami
saugat
##shakon
polio
chint
##phul
abhinaytri
duur
matsay
abhinandan
इल
daulat
aainaa
nivaasiyon
sivaan
##वदी
##तरण
##तरित
discl
##aghar
##isam
vishwanath
dhakel
खबसर
##preet
vidyaman
##dih
मौका
kunjee
##बाजी
haram
akruti
khudakushi
qadam
bhaajpuri
purnatah
##hant
122
sikandar
abhinaytrion
विशवविदयालय
electronics
cholestrol
auj
bajaane
लगाए
barason
ucchtar
chakravaati
satell
##lih
ashi
sala
belt
परिवरतन
gaus
bhuulakar
chodo
records
shahee
jana
anemia
foo
apartment
vidaa
##aaliyon
shaash
murali
pads
drav
bengali
##bhu
pc
##35
साकष
muskar
aluminium
uz
daraav
esayssi
yajurveda
amo
दसरा
mritkon
bulaakar
gunaah
mahant
adam
gheraa
phix
direct
graph
ghuspaith
soochnaaon
sashastr
##uef
##maha
saakh
ekaagratha
galatiyon
##prem
malaria
परभावित
dspi
kshetrafal
vaasiyon
##angarh
सरय
girte
chatnee
shaleen
rokna
stall
vietnam
takaraa
bhikhaari
pradhanacharya
manik
##thod
karachi
soochibaddh
bisisiel
दह
tulsidas
परयावरण
##चारियो
अतिरिक
परसकार
thro
napun
edlt
qareeb
kher
manushyata
pruthak
##pra0
##cue
##भत
अतिरिकत
ec
voice
gana
patal
shahadat
इक
##asingh
keed
shaashvat
janenge
neta
manaregaa
फा
kutte
mitr
bullate
nangi
लना
dravid
jaij
commander
graduate
potacium
शानदार
pics
soundarya
pataakhon
yediurppa
nishulk
putin
1986
aayegaa
musa
##itary
brush
ganvaa
hidaayat
muse
##oun
sadhvi
dhaal
banaayen
आयर
koth
gauda
dhwast
sarvatha
chehron
##uls
##anian
kaj
lottery
hab
sikaa
##ocol
upak
##dium
आखो
rampal
chuum
vaidhanik
##kah
bhati
रहगी
sorce
palaval
##atii
दकर
निजी
jadon
वजञान
sabar
bhalaai
giraaya
aadam
##परस
auraiya
खराब
खशी
##pas
conver
##spot
jadhav
fatty
stutiyon
jel
##opar
विरा
lie
gadhy
chhal
kutton
आलोक
gata
pahle
namase
##kund
pratadit
shush
##ficial
##chis
खोज
simple
##ॉक
gb
hours
taimur
##alam
hazari
##yashaalee
##asion
healdi
manovaigyanik
skreen
bevaj
kuki
मतय
परान
चतरवदी
जवान
bhejnaa
mangav
##2018
napunsak
questions
नयाय
##irdesh
fall
##chem
sitamar
##hunga
lakshanon
कपयटर
तमहार
diwane
bahaali
esadi
ummiden
jhaadu
मतलब
##titude
##anak
oppo
jahnavi
pitru
cost
किलो
pijiti
mishr
librari
vidyutikaran
milengi
map
sikhaane
##मि
karyanvayan
##राव
protocol
dhandhe
##istic
##aavaar
##ानक
sitamarhi
ति
##चाई
झार
भड
manyataon
maami
badalon
nakaab
banwaaya
rifinary
marji
standard
abhibhavakon
mashkkat
##ache
##baani
chodane
सलमान
##ithik
sadaken
praathmiki
jwine
फरी
दिसबर
duutav
upiti
easant
पाल
##रट
shruti
चलन
gaanth
अनमति
won
134
haldwani
bhus
##ातरो
balaji
shukranu
francisi
chuti
160
##दाबाद
kheer
nayika
तथय
आदोलन
chura
pabandi
bevajaah
saraahaa
##yoni
##viv
tibi
rivyuu
sania
bielo
कराया
##hakha
fere
गगा
1994
##haaye
parformens
naas
##aimer
dancer
keyword
##achandra
##apura
subramanyam
camaron
ahmiyat
##67
wif
yama
rivizd
dargah
kaata
sansthaapan
aanshik
##sarovar
मलय
वरण
unes
karodpati
bhrun
अपराध
financial
suar
jata
loko
enjoy
rajdoot
##phod
sanyantr
anderson
राजपत
beroj
##0si0
72825
mitaane
tandon
सज
rukaawat
reh
##ramuk
simat
kunda
साहब
praai
girakar
chance
maur
##ativ
traasadee
ala
सीएम
##sur
disease
unesco
##ayukta
virajman
zukam
bahati
rishikesh
agava
tabake
kachi
##uule
adhikar
niyantrak
wahi
हदय
##aansi
praaia
##keti
preshit
bartaav
tanj
सटार
nasl
##jas
कहान
vakaalat
vri
##uz
farmaan
फाय
पछा
inelo
बारिश
##thata
tatvadhan
सितबर
aseem
shreniyon
sanbha
लल
##taj
साध
##fore
martin
baichaiyn
uname
##उस
daroga
clsif
##चीत
clsifids
kissa
akaal
##pane
##bheet
nibhaate
parakh
##कॉलजी
kathmand
vivaadaaspad
swadhin
##apurvak
samarthit
laata
polish
##rio
aanand
##हरी
terro
dare
ruthik
उददशय
मशी
##हाबाद
helpline
साबित
palatwaar
davaaiyaan
commer
adeshon
chatrav
innov
##panthi
2500
nots
vrund
poonch
chhavnee
रखत
vyavsaayee
enaiti
##pash
cement
परार
fact
bhaybheet
roktaa
कषतरो
dirg
disclaimer
injection
nivida
poorak
sookh
upitiiti
pakki
naval
##tika
करमचारियो
##peeth
##geria
bhutan
kiraaye
जरिए
menon
##olution
durbhag
710
cament
mahadweep
gap
##sil
##tejit
परचार
अदालत
ukhaa
consult
hostel
aadarshon
louh
suchana
pahunchenge
##umo
george
aurangabad
कपया
dual
##ffer
ato
##amukhi
romil
clinics
anuyaayi
stylish
unchaa
समारो
mahashivaratri
##vyavhaar
##kun
trib
raush
गरवार
jhi
methi
udg
koregaanv
prayojan
hope
##krut
jaar
रोड
##alein
lil
rachanaatmakataa
sadguru
treet
devas
निरणय
aashay
into
##बाल
##uraa
chaaho
##yasa
thaan
pool
पषठ
kiul
chhidkaav
##haali
naujavaanon
kaarkaana
गम
##bility
rajkum
wali
kanth
baaj
xia
1200
aswin
##nai
baanta
kroeshia
bunde
राजयो
##ौती
taatpary
ambedkarnagar
isht
incharge
jhap
manahani
contain
abhoot
jadeja
##dish
तव
विदशी
purvanumaan
naut
बातचीत
praaniyon
milen
ladenge
pravaahit
loc
kia
##iliam
jalaakar
pistal
nayan
##sutra
पला
patala
##auli
mutabiq
faram
ghulansheel
satellite
armaan
anuprayogon
तयारी
manan
kuen
bhayaav
सथापित
नो
##yah
trikon
##90
kaz
aapurtikartaaon
khone
rohinee
thikaana
besd
bachaana
colect
galiyon
##inath
इज
rangaman
##टरो
divangat
कषमता
ladate
powerful
##ghter
emirate
raushnee
lavan
##haavon
attack
समीकषा
ofic
expo
nagaur
भावना
##dip
tarriff
dusht
मजा
सवन
chidiya
यौन
##सना
domen
pherbadal
choube
reader
packing
jira
rokkar
bundi
nisk
tadake
stachu
janaki
makka
parveen
mashinari
abhiy
dekhare
chaud
paigambar
##उड
##राह
toss
museum
dekharekh
##shang
paaegi
jediu
beton
helo
tourism
prachand
##ela
##63
navinik
malwa
vastut
##sasur
##mag
##ील
chhup
dakaiti
##leg
इलाक
gajet
##shyam
lautate
awareness
10000
hanum
वसत
pratiyogit
nikaalen
suryoday
जिसकी
uchhal
chatravaas
dhadak
lep
समन
rakshak
sweater
##षटा
tepe
chumbak
zab
bhuule
ghatakar
##viron
ujisi
bhadke
##yasachi
chittorgarh
chuni
विशल
budget
hathap
saavdhaaniyaan
अच
बिजनस
shamp
##sian
##mel
engine
spam
मश
##git
abhootpurv
चयन
jinna
sonaali
gharavaalon
ruuk
wiliam
उतर
##viet
jorge
apanaate
ghusaa
samarthy
nisha
##ikhit
reporting
udham
things
indiens
neech
php
##aadhunik
megawatt
##एससी
bathua
sahanubhuti
##jyotish
democr
##rar
shadi
naseeb
बनाई
##shon
striyaan
maps
rashtrab
saatvaan
angu
##avaadi
bhaage
pranav
##amination
मानसिक
bangale
blogspot
titali
sharab
bhayaavah
dishan
##bara
gyanav
bram
##appa
##oorat
gaayon
chab
jacket
पदो
eenai
समारोह
##ched
rathi
ghina
buddhijivi
parliament
daakhila
##िकर
address
well
rikaal
##sial
phisal
ll
milk
लकषय
should
दम
kukh
##dad
jalon
hukumat
sign
bomb
##ठा
soche
tripti
bano
##nami
sangeeta
kamity
lekhnee
sheel
खतर
prabhaa
paardarshee
##uga
##डाई
राहत
praay
aurangzeb
patrik
aatmakatha
कड
lathicharge
ship
##सि
monitor
##wahati
negi
ard
gall
##via
vrisha
##anet
##jum
source
##daaron
पलट
##hej
durvyavhaar
इजी
cad
u0pra0
verm
snapdr
मिलती
patharav
bt
ravaiye
labhan
तथयो
find
##78
purus
remo
jaatakon
todphod
vidhivat
pattharon
bhuj
anugrah
goliyon
mandsaur
pesha
mahisasur
##vrat
##ातमा
izhaar
भवन
araaj
kumaraswami
retail
daavedaar
prashansakon
##nya
खोल
pratipada
khushhaali
गजल
itiai
बढान
regi
tm
gore
amroha
naarad
1967
फरच
laden
gagetts
affairs
apply
madi
uttejit
कनदर
##bind
##veda
reva
उनको
charbi
nishe
जोड
xiaomi
atyaadhunik
तया
नटवरक
cc
seshan
behosh
quint
makkhan
movies
kaner
lipaphe
##ayani
milaayein
कथा
##idow
mask
परसताव
shad
##udhari
jed
mishri
shaktiyaan
सटोर
choub
dhadkan
anuthi
##ign
##kig
पाठक
chalaang
summit
wicketi
aapari
hathapayee
##enk
ful
wicketiper
pidipi
chash
kms
darshanik
vaktaa
rrbexamdates
bahur
panth
##ulation
indu
##नगर
##ridi
aalekhon
hawaaon
points
phosp
hakdaar
riyasat
oficial
labhanvit
कमप
rahasyamayi
a¥
fauj
pratinidhim
##fia
come
tihaai
सहायता
##mos
vrundavan
siti
haadason
##iddh
hatho
condu
tatu
114
guwahati
contra
##main
uttank
chode
maak
gaaliyaan
उततराखड
sabyasachi
##eenes
pyram
chargeshit
पकड
gandhiji
colors
rais
duutavas
ikaayiyon
dishanirdesh
hafiz
bew
आसानी
महाराषटर
129
rangamanch
abhibhavak
##pancha
iff
dol
एशिया
##सवा
दावा
मित
anaavashyak
babar
telangana
willi
disp
badhayen
sibbal
kalank
bhavani
shaheedon
mobil
phoda
बालो
brother
ghutanon
टवि
jaaie
भोजन
aiji
mukhyadhara
##ishaan
kaidiyon
dantewada
##aalkon
लता
##ानो
निग
qa
##apras
rangoli
abhimaan
आपस
brow
nalanda
floor
##haayi
5g
maapdand
mahaprabandhak
##havan
badrin
fig
##tle
mehboo
hazaribagh
hong
mushkilon
##मह
independ
bachpan
पजी
चना
earning
drop
gear
antiox
##100
modiji
pahachaanaa
##anjay
destin
ieenes
##jiviyon
सवीकार
jisapar
##bti
लाइन
##bean
ungl
जयोतिष
scol
कितन
aara
##ायी
sambhavat
uttejnaa
##anup
rachane
chadhane
बगाल
cait
मोर
dear
legal
esc
produsar
players
nilamban
shrav
fighter
biography
##khor
bangala
bharna
aanwale
navag
सवागत
hr
##sya
मिस
maarna
करा
spinner
mouj
##ोद
mujhako
marshall
rakhni
secon
सविधान
एफ
##aniya
jevar
agrasar
पटना
##aij
dabaakar
daleel
##ajesh
nibandh
fouran
maansarovar
nagarpalika
शखर
##thers
hive
garbhpaat
छातरो
lens
jalawaa
cum
सभव
leon
dashar
shelter
patak
123
dhakke
जलदी
230
vijetaon
riyal
##kashi
birthday
moto
##jibi
ritred
1989
आरोपी
दरअ
inspir
ata
goshtee
sudhi
rajanithik
##ou
jinhe
##isisi
##डिग
tejpratap
tanaavpurn
chaalkon
spect
honton
keyboard
nautanki
सपषट
pakwaan
kholi
karant
bandhe
नीर
vrut
chinhit
size
kehalaa
alibaba
##chasi
##oto
##डॉ
sansanik
katl
shastr
thama
ummi
##दम
communication
painti
##pid
bandha
दरअसल
##chod
132
bhukhe
minuton
##दाई
हिम
परियो
alpsankhyakon
lala
years
hydr
सटी
features
गला
##ruth
##aaman
increase
pratinidhimandal
loan
maale
##prasad
समह
mauni
kullu
jayal
shauke
jhur
##एच
dij
sajaayaa
parti
करल
aaparishan
अरब
##state
tike
cool
chanaa
mend
तन
poetry
daaman
kachhu
##ahaar
doguna
थोडी
kathmandu
##vement
tikhi
##maanya
##lah
paapon
##ium
ऑफिस
caitra
tiwar
kiss
##angati
chukaane
dushyant
sarender
taha
baaji
rassi
sahajata
तरत
pratispard
parthi
adhuri
bulaane
artificial
hazaron
घा
pares
##itate
kukhyat
paayegaa
ird
files
sattad
kalidas
billian
gath
jes
bidi
rescue
##adhik
abhilekh
dix
ile
बोली
bandh
niyaman
रावत
##pect
##maal
siddiki
suchnaayen
sucharu
निवासी
शासतरी
मनीष
इतजार
glu
##ston
galiy
mehboob
guzaar
tamaasha
rile
##illi
##shram
ratlam
flag
सरश
ऊर
आशीष
रतन
madhyamon
अहमद
सवरप
कॉन
##miti
##hadro
prana
##चारी
metoo
dashami
byopic
मसज
stamb
फिलमो
शिकष
khwaahi
##dary
sangheey
thanks
bhalee
kirdaaron
##mia
darkin
##जिए
segment
bhandaaran
##eekrut
bush
bark
deshadro
khagol
tirthayat
किन
asthan
sirdard
sinhar
paanchon
design
automo
टविटर
vaanchit
km
vishwasaneeyata
nitiyaan
jhukaav
पशचिम
suhaa
कपनियो
आराम
thoughts
reply
mist
vicky
iconomi
uthati
##chao
solve
##warking
अधया
ghuskar
##shashi
chakravaat
adaalaton
mahalakshmi
masa
भीतर
chaaro
koshishen
##ativity
##numa
marg
madrasa
dasharath
mins
1995
तलना
uplabdhiyaan
parfect
creative
परवकता
##wana
shaukeen
##rome
लि
##cand
kry
kundalee
dian
सॉ
kigra
##adr
raajaaon
end
shushk
daaud
##tyle
computor
drish
lupt
##bua
waqt
##ugar
##pure
putala
##chaal
lobh
##45
lagta
brown
darataa
bheekh
##कीय
kaashe
dhamal
अधय
बचन
shuddhi
patariyon
andre
sthaniya
##tab
परियोजना
kaashew
banman
मिट
shikshika
तमाम
chaun
overon
sattadhari
##hakaal
kurs
dialog
bek
##aheen
ashrith
वोट
##kaarita
darkinar
godaam
##ghaatee
baroda
homeg
आधारित
kl
tav
mairi
##ajahi
##yakavi
1950
skip
##praveen
ullu
dd
##िनि
karaata
masalaa
गोपाल
##ux
ig
mt
साई
शीर
holiday
##साइ
कडी
इटर
fad
oin
चट
तनाव
##oard
daalata
purvajon
कोहली
##alis
doharaa
parshuram
mitrataa
beijing
sidh
chandrababu
##chauthi
duplex
aksharon
##andhon
इतन
varkar
tarikh
bhole
iii
##chemical
##atiya
suvidhajanak
##down
leone
##kaon
prachlan
jurm
ummiido
कषि
glam
जायगा
bado
adhins
बिक
namah
kasam
pratipaksh
kyuu
##alle
##oshth
somnath
12th
ranneetik
pruth
kharidte
hoshang
pulis
ramnagar
websites
##udhist
kumarar
finger
fever
करनी
hafton
jeth
bulb
सीध
mizaaj
##gedy
##कोश
डि
##ilon
##bimb
singhdow
todi
डब
publicity
bevakoof
secretary
depo
##pedia
डट
bachaakar
pustika
anir
##बरी
frends
बनाकर
फायदा
paur
वदधि
लोकपरिय
ghir
hasyakavi
sheethal
##खल
chhodte
machaaya
jayalal
##iro
तवचा
thuk
##vt
androed
pahunchati
apratyaksh
raina
future
baratane
araajaktaa
ime
##enger
174
##hawatah
bhal
##encing
परशिक
sambhawatah
fish
##rooms
sochati
darje
motors
parikshaayen
ganguli
aakas
night
udyogpati
ashvini
हथ
sure
टट
harman
conna
parthiv
##बीर
सकसना
luutane
bahuchar
oongali
##वश
srisanth
परसार
nirbhaya
##adhya
chemistry
##adier
vidhaon
##odel
##arkar
##nab
##rich
jpg
aapat
##entation
turk
कारयालय
शासन
##पथ
sakranti
navay
##indon
navnir
aaram
prashansak
अनवाद
anumodan
katihaar
chhaviyon
शाति
##antrik
तकनीक
खन
##िकशन
farward
anyatra
saap
upbhog
dravya
ruh
scam
wah
##cro
##aham
विकट
##chia
##ridor
udaane
ukhaad
##aatal
pichh
sting
shikast
##daud
duungi
विदयार
pokhar
yahudee
successful
hoshangabad
aprak
asahmat
मलाकात
##kout
kamalesh
bholaa
उदयोग
manokamana
सामना
papers
machu
wheel
jyon
gadd
वयकत
talashne
panama
aies
mukkebaaz
bahucharchit
चहर
##cas
adhuraa
una
shatr
flor
मॉडल
dhaj
शौ
bhaati
pench
##uw
aatmanir
tujh
rapid
yuas
rights
solah
गरग
सथापना
##piji
reme
diai
अनस
##चि
##udha
khuleam
हित
yuzar
banmanakhi
लॉन
namit
विशाल
babbti
मफत
bikini
##mester
apekshaakrit
late
बाप
jaagrit
सभावना
duuk
articles
##aayik
उड
bahya
amman
##utions
netwarking
moong
bhens
avshesh
sivisi
fursat
dhuaan
gird
##87
pryojit
##akarmi
aajeev
redmi
उपसथ
satyagrah
gaushala
dav
oes
मनोर
siwan
maith
nikhil
##vam
11veen
bajrangi
sangrakshit
auraten
##िरी
sukhmay
##hout
latin
लगन
hotin
tari
shresh
मातर
##yaahi
chaabi
jiname
khod
bispi
##liya
lashkar
गोर
##61
mangalsutra
avadhesh
##akaaron
taaoo
kaalsarp
firozabad
##नाम
maovadiyon
santaan
carbo
argedy
##force
##aasak
##pines
duurastha
##aty
delete
dasta
##side
bhaad
aham
kamaron
connactivity
##enes
##ankai
esaiti
##eraa
idea
usd
##मदारी
suukh
marx
##asaa
fuck
रड
oinstin
muktak
philist
ramajaan
##कषक
saarv
paryve
oparator
##oya
##aref
rek
rul
##fing
घायल
glow
शरम
sall
ronaa
mb
135
title
##lakshya
jagaane
chile
grey
चिता
samek
pratibimb
mitu
paros
##aaze
yaman
nirgun
##कषतर
celeb
bot
auth
rakhan
बतात
डिप
##liyaan
athle
dalitbah
parts
##kart
mithaas
##ियार
अधययन
खडा
महार
dhanvant
jasoos
rachi
mombatti
raaston
इचछा
जिममदारी
kunt
ekatar
samasam
vanaspati
musta
##addhik
इजीनियर
chhapane
marna
##hers
##गाव
##anaayak
##cked
khinchne
pranayam
nagarjun
kedaar
सवामी
remedies
kisan
##mai
firaaq
anaupchaarik
shigh
dikhaaen
sankoch
pral
##udhisthir
gola
ताल
pienbi
sanchaalkon
binduon
##घर
doobane
checking
batal
pinki
kalpan
showrooms
kaabiliyat
dikhaayi
khwaahish
##mali
dhanvantari
##ben
sunata
uplakshya
military
naagarikta
medium
pruthviraj
pidiyon
ghoomana
##agone
bhen
adharcard
shadyantr
बिग
##iling
isil
blouse
kalp
##aaleen
najariya
thank
chakravarti
vyanjanon
padmashri
irshyaa
##ratri
shilling
समबन
nagareey
snapdragone
चली
jalastr
परबधन
rikord
डटा
##iyog
packaging
naata
anusuchee
raigarh
vivaahit
georgia
##सय
##ilal
avag
md
aphi
rajkumaari
sky
##ills
bhanti
babulal
anischit
tino
##hasan
रखना
bhandari
sambaddh
##तकाल
रजिसटर
##िटन
juri
kirnon
vyaad
chaalaan
restaraan
ichch
भमि
##hatan
mahadevi
guruk
छह
काट
रिकॉरडर
aviv
kahoon
##वाही
karu
mean
badaye
##chhu
hiv
padri
##bhat
dhamaakedaar
swadhinata
##साधन
##21
bluet
##bhagat
haarane
shaakaahaari
##rikaran
mundan
ritaire
percentage
sanyasi
nandi
rojgar
chalaaye
##fu
khyal
##abil
##वनदर
arabon
shiya
aakasmik
harsim
##ici
vek
aashray
secondary
featured
stithi
लौट
flop
punarn
wall
visheshank
##janm
karnama
##चिका
pavitr
आशा
taiwan
zid
अनप
##मब
sahabhaagita
samvedan
visheshtaon
exc
vaishnav
udhyami
##raatra
apgrade
maarthe
platfor
मथ
dalitbahujanon
राव
शराब
aashi
धारा
##iel
vatan
hosting
chaape
kushalta
vishle
##safar
baaluu
afrat
purvanchal
sansanikhej
unicode
saghan
paksha
beni
shampoo
##link
बचा
athurity
##indranath
aadhuniktaa
yuvatiyon
petrochemical
radhak
rekhaankit
afratfari
navinikaran
परती
duranto
zinc
faislon
kishoravastha
niraakaran
anginat
##vironment
samvedansheeltaa
ऊरजा
quintal
semester
##vich
paathshaala
boxing
pragna
srilankai
dirghakaal
aamantran
1983
sarab
gheraav
bhashi
maangate
##मलन
गराह
dahal
gadha
chumban
emel
nishedh
maiyaa
tital
##artak
taul
panktiyaan
नततव
##दास
toliwood
##odar
recovery
manage
sarini
gazalon
manjoranjan
pasta
jhabua
पहची
सौर
oste
boot
जनरल
romaanch
सासद
virgin
wet
makh
jong
##bers
##bhavan
peter
paresaan
thinking
naseehat
colectrate
bachaata
sakte
##fx
##andeh
sajaavat
nikaalte
bhojpur
##ोरी
mog
fari
kathua
##िकता
dushmani
##read
mouse
samagriyon
harsimrat
उठा
mehul
##cho
oral
chaudhari
रोजगार
democratic
khuraaq
dikha
377
aajamaane
शकल
bhula
##biyon
इनम
tasveer
##act
zariye
studi
chatraayen
prakoshth
zee
##sin
chhand
##aagaman
dabad
mehar
##ssc
mung
##ental
taale
##ende
raktadan
##iniyar
manz
navoday
कारोबार
bond
aatmghaatee
utarate
karaati
ritairement
##uard
दरी
##abari
हमल
colom
pattiyaan
menhadi
दाम
विवरण
doctors
swapnd
takaton
vrishabh
##वाला
katof
echi
buund
magne
##lii
railkhand
##bala
sunen
राजधानी
aatmanirbhar
##अप
हाथो
##andha
##cream
soon
yaaron
##jul
chuaa
shoeb
याचिका
मडल
##stal
बाइ
bhij
विष
henry
कहन
mukhar
lagaati
kinaaraa
##rest
##apuri
विमान
alokik
karwaae
jour
screening
##kane
शरण
visphotak
##haad
दास
##akiri
jhatkah
fel
##anchal
unani
kuposhan
shiviron
chaahunga
varshganth
##ysis
darshaya
swati
shikanja
sthaniyakaran
##shaan
hatakar
रकत
kos
pahunchaane
##जिय
lose
हरा
##uven
aphisial
लखक
muhal
मडिकल
##टिया
devgarh
sefti
उनम
##antargat
अचानक
इगल
##till
ghag
विशलषण
जनस
motaape
roht
##chur
1974
hed
thermal
##mart
##ढी
dablyoo
adsense
kumkum
rajani
kabut
sahej
samanvayak
kachare
parvatiy
chusna
shai
wire
avaagaman
bhattacharya
##oe
mahakumbh
adhure
recall
bhaagyashaalee
puraskaron
sic
##atani
saub
##ाइनल
western
कितनी
diu
warn
ipisi
aajeevika
##88
korporate
aawaara
utsukata
bharte
garud
arpeef
without
##agiri
मधयपरदश
isiliye
वतन
padhata
gahane
dampati
650
1962
behate
jimmaa
fake
rong
डाय
lines
periods
maze
rakhanaddhik
vend
haih
chutiya
rajgad
##बदी
bharpai
बाध
taareef
hm
namaste
chaup
durbal
jaaun
##esian
mahilao
jaadui
soma
##sanjay
automatic
vikreta
##craft
##haape
jaagar
abhish
##agharon
bhum
suryagrahan
##maiya
mutthi
इटरनट
summer
##cd
##pass
156
clasik
fid
##ering
##udes
manha
racket
portpho
##efasi
bhagidaar
paathya
गलती
danish
thikaane
kaaryakshetra
coridor
dash
ugane
##yash
side
##uela
kagaar
##ession
duvidha
remand
jakir
gurudwara
bhawanon
lassi
सतन
koll
jhunj
syn
##riwal
##ानि
khili
ofline
##kud
चाहती
radhika
ner
lipt
##pm
navayuv
pratibhashali
सपशल
यवक
sent
##stri
kunal
गोली
जता
mahanagaron
abhivyakt
badhaayein
##लाइ
##chandr
staron
nirdhan
jhund
heere
banani
purse
belar
दीपिका
##oder
atithiyon
##cose
dushmano
saute
raaton
portpholio
visangati
##ented
समापत
##दाता
dehdhari
##भारत
हनमान
lakhan
बाकी
ubal
##akaari
##kaaree
venez
tiki
adhinsth
sell
hoi
many
##putli
aant
hashmi
##nik
##unews
moderator
treetment
gub
moo
samajhadaari
##थियो
परसतत
bax
यरो
aathvin
##shastra
ridh
##agrahan
वितत
emes
filmkaar
essay
andruni
तीस
शिख
pathako
परतग
figure
bhugol
शासतर
gadhwal
samajhati
jau
niran
leki
##arim
signe
bamb
bithaayenge
anam
stha
sampaadan
##avari
डिग
kabool
bhagdaud
kishmish
funsane
photographer
##bies
##inam
ramgarh
pitt
15000
आरकषण
jasusi
shraapit
धारमिक
frij
kooda
shwaas
##asam
sitaraman
दाव
##ivan
akhrot
annad
##str
शबदो
vinamrata
rishiyon
rashtrap
parikshaarthiyon
jack
विनो
##लट
##rem
लहर
flipkart
mujahi
हरि
samaacharon
banaaegi
shrimadbhagavad
abhaasi
enpie
##pes
rubarunews
jaagarukta
tom
solution
sangrahit
विपकष
being
kanvar
charpai
clinton
amazing
alco
upitate
divijan
driveron
abhaari
कपड
bimaari
gates
ससद
##पास
batti
malda
lalak
shedul
tahalaka
vrit
rahan
soci
savai
herbal
shaskaon
mekking
does
utsar
bluetooth
niskriy
bhavanaaen
agenciyaan
gadhi
बीत
##ranj
achchhai
signechar
chittha
prakope
iit
raksh
सारा
##ked
raamji
##aarik
prasans
parasaai
gumraah
lund
##ford
margon
hars
##cist
##arasi
panjiyan
कय
##rikar
aanan
sebi
vaast
सघरष
juk
matar
fiks
dhari
kasuti
dhoopiya
bhavarth
रखी
guzarate
sampradayikta
सालो
nutan
hridayen
पडी
hauj
asweekaar
##zza
68500
sudur
aapurtikarta
119
komo
kadamon
##काशन
चनल
gadee
solo
diene
saakshaat
sunaae
jahrili
##oa
sahal
rhite
wy
justice
petrochemicals
dhaancha
##tillage
nirodhak
hadiya
aankalan
nikaayon
cartillage
##दरो
indon
##vaag
sargana
kuber
abs
byore
statement
बिहारी
jaz
kheme
khaae
ullikhit
गिरा
biguef
pichhlaa
अगनि
asantosh
##qar
jaisa
dabaaen
kaay
janamat
visheshtaayen
paracham
रिस
##विजञान
would
हट
##ghare
##ubhumi
vishwacap
vet
gudiya
एटी
chuun
nirvaah
परनत
pakh
migra
##aavar
भगतान
cock
javaabi
##utive
regular
karl
kshamtaaon
highli
mukut
##kkkk
reviewed
ऑसटर
spin
vajood
thanon
dridh
kaarysthal
सनील
ishwari
asthir
##khani
seepi
##idence
chadi
jhum
pikchar
harkat
bori
jayant
ubhari
नियम
samasamyik
ichchhaaon
warrant
panktiyon
jalane
barfbaari
brigade
##पनन
mardon
venezuela
theka
bhel
bhaajap
basen
praf
dobhaal
gadhwali
##yaas
pratidwandvi
2018अ
##icon
पराण
films
ghabara
sodium
कमरा
marm
berahami
##thro
silband
pushkar
kaunsi
aadharbhoot
विल
##irodh
sahvaag
pars
telugu
asmita
pramot
ghoshn
besan
kids
amount
swapndosh
lachee
chipak
##pc
##disht
पहन
kani
anali
glucose
##uber
hothon
लिम
dhamk
tikhe
मसलमान
prabhaavon
डिगरी
appro
chaak
##rishn
mangala
sivaay
esayuvi
prasanskaran
टरा
customer
icc
##लन
जमान
chhipaane
haveli
सहार
acroshit
janani
nikaah
center
kisht
शखस
prasthaan
linching
हिमाश
harishankar
##keya
खी
abhiyukt
##ridge
##heda
chingaari
capt
##uktiyaan
louis
sabut
##ashiv
swatantrata
ghad
दान
##सिया
bisai
hek
doha
iarsi
##fit
swiss
##meet
venk
karaayi
dey
siddharmaiya
##code
bolen
niyamavali
रमश
diaiji
rahon
vanyajeev
ait
prithviraj
vaayada
tapak
##हममद
##ns
rahoonga
jhonk
sujhaavon
##maaen
raut
juli
##nl
portable
##दयोग
nazariye
ekatarfa
inam
nikatatam
##kr
soyabean
tite
adress
khelkud
विधि
bairal
yachikakartaon
daaru
##मच
परिषद
विज
##cher
240
##varti
budhiya
##yut
jaanboojhkar
बातो
bharatpur
##mandi
मम
boojh
चकर
काली
duukaan
bauk
##कप
##arej
gurudev
patawaari
unmool
ताकत
yahova
kabza
chalaakar
mumtaj
सीरीज
ees
सदश
workout
लान
##asur
chandragrahan
emo
mithaiyaan
starop
##upan
sabhapati
siddhanth
rash
vacan
khinchaa
ingit
khed
stanpan
kisko
chupaane
palam
##fash
सिसट
##पोरट
jodna
kuran
##वयर
punarvichaar
##atod
##मीटर
grasit
voltage
tujhe
sufi
##naaz
होम
creativity
##wah
##zaam
darv
motihaari
vinirmaan
vakya
rosemara
gt
##23
vahini
दि
##mila
saubhag
cu
bhejte
बढत
dwand
lud
रासत
bhumi
antarim
lady
chandrak
##vardhak
विनोद
tabadale
guzarana
##aarad
dhup
##falee
anukulit
durghatn
banaye
syri
सपनिश
##asat
hur
jach
unmoolan
नज
nati
tandav
jayalalita
sanketon
bijon
sabal
गरमी
maadak
टली
##jhaa
##hanai
keechad
abhir
baaren
##uje
doongaa
##wj
##akab
##भाग
pratibandhon
kochi
इसान
सामान
interme
khaak
chunautiyaan
ansu
bola
jyeshtha
भजा
sirohi
गान
centuri
dukandaaron
hispid
photoshute
sarvatra
शलनदर
dhokhe
aavanle
lis
riy
##sium
parit
tatpash
mace
nem
samalangikta
banaaenge
bhasma
respon
krna
alawa
सरज
iarsitisi
##jur
कमारी
phu
maanchitr
spectrum
yen
naub
harry
prachaarit
avail
jaali
##akshat
bastiyon
deshbhakt
shishe
##नीत
निरधार
##याण
bharatvarsh
vittam
mp3
bound
बय
bhoomik
daavedaari
##cam
##agir
अटल
faisalaa
##jaan
yatr
आजादी
alji
अकल
घोषित
##yaati
##dhon
##rapradesh
##तालवी
chupake
nirn
aade
jhadane
gine
माइ
##von
##सतान
आब
shasankaal
koyale
fb
suha
astrol
votaron
परसि
skuti
फॉर
फाइल
khaaye
orig
dauda
alla
alankaar
##avapti
shriman
banavaa
अखिलश
parvej
इलाहाबाद
##thu
khilaane
vitamins
##ahua
##vilas
omega
pucho
kesh
shaukia
लडकियो
##डस
##pekshata
rw
aankhe
##aul
shopiyaan
jaruratmand
##किग
baithna
wad
pio
बहा
tuune
बीमार
##gha
aabkaari
nipt
cuba
yudh
khaan
tumor
kayaas
##aahiyon
##amag
rules
##घटना
karavaate
उतपादन
kamata
kuwai
kshatriya
लॉनच
##पो
beach
sangraksha
guss
##ctic
kaisar
raso
1977
सझ
breast
gherne
bhilwara
gurukul
daast
brows
apanaai
##verse
eka
उसको
इतालवी
phaltu
author
track
aditi
##rast
manali
elb
mukhmaithun
electrical
labhaarthiyon
sard
filmo
poland
cirkil
पीडित
##atal
parrikar
##unon
badtar
kaarybhaar
balraj
race
shankaa
aamajan
hoy
paune
सहमति
khaati
##etra
icecream
patrikaayen
ekant
सममलन
##eeshaan
apkpure
sarjan
urine
umdaa
andhrapradesh
joseph
better
achi
durghatnagrast
##पयी
mait
kagajaat
kill
budhaape
बिन
ungal
##bharose
khubs
bhattije
परतगाली
imaaraton
rice
sanketak
anuprayog
pulav
dugdh
amuman
बहस
munaa
jija
##araam
राजकमार
hansee
scheme
parakram
abhinn
jhon
rafi
shehanai
kirtiman
##vahak
ashaanti
##rahman
vrutant
enech
##baazi
contestant
रास
muktibodh
mala
neh
##yed
swechha
neemuch
transfarmar
alt
suun
duba
modelling
रिशत
jananath
dikhegaa
fatima
sa0
grid
##urav
##utri
zindaa
taaq
##zib
moongfalee
##ragan
pron
anoot
variyata
access
करनाटक
मितर
rajbhar
tateey
##vet
umang
##नीश
अड
jaaoongaa
##rud
shaadiyon
siikhe
bhaal
##kani
builder
ies
kif
किर
graju
ghira
luck
madhesh
यग
पलस
vaz
bob
पोरट
##ining
##agaanv
##istar
जानिए
arjun
putron
शारी
risk
naashte
##qa
venkaiya
ruparekha
##yapee
haddees
फक
##षटाचार
salil
कमल
##umb
deepveer
sult
nasir
tehri
buddhijiviyon
philippines
##फरी
apwaad
teb
मशीन
basu
##iner
निगम
##avit
khari
##दीन
दिनश
##ely
जिमम
तार
##irt
salad
##iyarpur
wais
sonakshi
jamaat
euke
meta
faaydaa
पचायत
bobi
##hiltaa
css
1961
नरनदर
fanan
agarbat
पडित
redu
##charan
बढती
rukii
routine
vidisha
nach
robert
vittamantri
##chaayak
ganthe
upkram
##aahita
गजर
##शिप
##geet
##ged
baraten
ऐप
sannata
##बाज
sthitiyaan
##ander
hema
swatah
विसत
dhanush
निष
rocket
dikkaton
आचारय
vaidhata
gotra
duube
kadd
##54
seekhen
dridhtaa
##avami
##रीका
kandhon
##तोष
परियका
profit
esh
nechar
##aabandi
रहग
hataash
champions
abhile
ilevan
hate
##endri
##rious
kabiz
kalyankari
paristhitiyaan
natya
खबसरत
##gyaan
denmark
##tim
असम
samp
##shatak
##teshwar
निप
vishakha
saralata
dharaatal
jantu
evaj
##धिकारी
यातर
##sule
mahanayake
सचाल
prachur
##prin
raashtragan
lamas
pulavama
आइन
moj
paanchvaan
vibhuti
gree
daastaan
ghatati
parichaayak
##gers
##अर
nishkas
dabe
##यप
brahmachar
outdoor
gaav
menka
fansi
phengshu
##alid
##uchh
shiro
saapek
##aavaron
shukranuon
difens
nel
नहर
sikhon
lubh
bohara
aukaat
##fast
मोहममद
अभिषक
giraane
नशनल
saadagi
baji
masood
economi
वयवहार
tooth
4g
khaadi
##aamukhi
##bhushan
##plement
mahin
abhyaar
jhunjhun
विरोधी
##asu
##जोर
maanon
##ikaoo
##rendra
hamaraa
##posh
nirahua
nidarta
परवीण
dosh
aahuti
pavitrataa
gurmeet
nawaja
grajuation
बोला
hamalaavaron
asantul
##ाहरण
1982
कच
jarn
मदान
chilla
crossing
##tick
lel
कॉपी
tant
notebook
ungaliyon
syaahi
stanon
administ
bahin
sere
vaasi
##mukhi
indonesian
andaman
tabadatod
##jiyaan
mahilay
petakar
samahit
beca
rathyatra
##rishnan
##pio
##under
loading
kehalaati
fav
डिस
परानी
विसतार
keet
shang
paripurna
makapa
construction
##93
swasthy
portugal
karunaa
saamanyat
thes
##bur
##aadhar
neuyar
pales
kannada
bies
ched
गाडी
##गान
dia
10am
##aish
##oolya
laalasaa
padhaao
sade
badanaami
uks
##beet
because
राजदर
##aakon
mohat
1954
शोध
beasen
abhiman
bron
hastiyaan
##cutive
teha
karaari
khandaan
malini
rachit
निदश
hooda
salman
unche
तारीख
anubhag
butter
बिस
मिलकर
nin
bone
two
##vier
##khalan
dadaji
ey
भीड
##gp
movement
laabhprad
anoothaa
baraak
##वतता
cinemagharon
kunvaari
##धयकष
shridhar
rahal
nom
rabari
अवध
bakse
ghoda
verification
vichlit
attitude
jabaab
visi
sabguru
consultant
avishwas
tatpashchaat
bhadakin
sij
prakshe
##adip
achh
ममता
kirthan
mehadi
savere
awwal
gn
gem
##sey
internal
##varta
rameshwar
cloud
##los
##yavan
पढाई
soda
apamaan
praangan
सिसटम
##agaar
suraag
सबक
nark
1948
kaahe
##gim
manon
astr
gutthi
गरप
ganeshji
migraine
वजञानिक
goonj
goo
kahanik
animal
kalai
mitaa
mahatta
##aveer
ayogy
##aswant
panchakula
पराइ
##aahon
univarta
विकसित
निशचित
banaavat
##वाणी
184
ghanto
dohare
परतिनि
##hoi
baandhe
apamaanit
nanhe
peshi
ततकाल
aayegi
burman
masalon
yamun
मकर
aaleeshaan
ardhashatak
aujaar
##shanal
सपा
kanchi
yugma
##artmaan
हसन
jimmedaariyaan
हाद
helmet
beghar
शरणी
prashast
##yama
##stareey
##sterol
saraswat
sifor
niyati
##aho
maithun
bataayenge
रिज
pardaafash
avishwasaneey
taanaa
naq
divaani
calcul
emotion
resort
badhenge
##वाइ
sipaahiyon
##bab
mill
hanan
##eeshon
लह
तमह
agreement
kenya
siforeeshon
पररण
##विनद
उदाहरण
platformon
mm
बगल
awaaj
alcohol
ladanaa
sharmasaar
industrial
veed
station
pariyon
##बला
provid
sem
banayega
dinaak
saptam
tripal
##alila
हलथ
divi
rajbhavan
registan
naksalwad
annadramuk
chalaata
hawal
multah
lagaaie
wood
जयाद
habi
galatf
quiz
##aving
hom
सीटो
शारीरिक
ballabha
बरी
##jd
मकाबल
सटड
piv
siyaan
likhti
##riyaayein
solanki
मतदान
jalakar
daaroga
##ato
rizvi
ammi
rachanakaaron
jham
sanshay
भट
डिजाइन
##vaadiyon
##dhashram
anjana
chikani
dayera
##वित
sten
harkaton
ps
asuvidha
sansthagat
original
pratim
##iyu
agarbatti
shreya
oman
oo
##atica
##govind
munaafe
##aadit
joden
##uwaat
##gandha
##shadhi
pahchaanane
bimb
##haavi
shajapur
chhedh
दिवाली
baliwood
##ound
shruwaat
achaar
##cricket
milee
##vastr
chalisa
bagalaamukhi
##दद
mashine
feder
विराट
vaais
automobile
whe
maiks
saanse
##िशचित
##oglo
before
vikar
##gati
pista
akshara
rajanand
expl
तमिल
dhabbe
jimmedaariyon
तोड
##राग
jaswant
sample
insaani
hangaame
cancel
समसयाओ
hanumangarh
##doot
ال
aangan
made
stamp
ramchandra
phus
pipuls
भरो
aapko
##atim
babuji
##taaj
कलयाण
mileebhagat
dabadabaa
##ooti
##vashi
never
earth
लाइव
##बदध
##inar
##eeyon
##kai
chul
खाली
kanj
##सामानय
dharmanirpeksh
ian
पात
##mited
##padh
hijbul
nazren
shailesh
grenade
##opi
asahaay
combin
##asabha
roji
जिनक
stroke
herit
##ishaa
haaz
##care
##irmaan
हालत
##गस
##zn
manachaahi
fu
lutpaat
मकश
dama
dach
nigal
di0
pel
niyojan
varishthata
bhinnata
करमचारी
bhure
spo
andkosh
anju
homeguard
dait
ein
letter
saamanjasypurna
450
yunisam
savarnon
aup
yunisamiksha
pahananaa
समारटफोन
1913
udi
houseing
ahir
takneekon
running
stre
सवार
##camp
##well
jatiyaan
bachh
aathven
shaatir
jhala
लडाई
lipstick
satyanarayan
ellection
santa
हमस
heritage
##ajak
kooday
baking
ger
paathyakramon
इलकटर
##yaashit
laad
##zation
355
dimaa
pandal
ikkis
धनय
##ामिन
aani
galatfahami
##zad
chhedhkhani
ladkiya
beasenel
pahadiyon
joint
ramvilas
essiasti
तरीका
parchi
apratyaashit
baldev
uc
butler
badah
padosiyon
veediyo
anty
##daasht
profession
पीन
yashpal
dron
comics
nazm
lagaayi
##yaatmak
##aadaar
kuchh
shanidev
छठ
जबर
godhra
##ashti
परतया
karyanvit
रहना
mithyaa
kazakh
tube
output
watsape
atar
sanvaar
##othi
motivation
##stein
bn
vardhan
uttard
a5
afg
uccha
punarjanm
govin
baithkon
variya
rittin
fc
siddharthan
##ilion
prajatiyon
puk
mouth
grihas
faujee
mook
##aakoo
##enture
itihaaskaar
theory
मिलाकर
rajanandgaanv
yuasabi
कजरी
karpshan
आलम
baxur
kshi
tangi
andhaa
chatt
##meter
mahavidhyalayon
entertain
##rekha
वारता
choubees
jakarta
nirbharta
fefde
jugad
##idaas
imail
गणवतता
speci
##urba
dilaataa
भरषटाचार
##odia
sampattiyon
sanvardhan
chadhe
environment
shavon
गरीब
alex
months
janam
चाय
1988
##नीति
nirankaari
nirvahan
मनोरजन
##baajon
sugam
saab
kathy
tambaakoo
asamanjas
waan
sanaa
सोनी
विट
nagin
##waysstudents
boodha
##liance
andekha
daalenge
भकत
jiarapy
naubat
##वशी
ediem
shmash
swim
##काई
kingdom
haddiyaan
sansthaaen
pahel
yaaddaasht
prasiddhi
sage
sabab
shrad
prantiy
जिनहोन
vighn
khalanaayak
##gaami
shaomi
beyi
vanvaas
phosphor
adrishy
machaane
##nag
while
saavarkar
सदीप
shek
rij
##मय
नीद
koob
kaul
baante
sujoy
pakaane
bechaare
chakr
haraane
डीजल
aseemit
restarent
##धीर
dari
dhaul
वॉ
jyotirling
ruukh
bitaa
beche
antarjaal
adhish
dhuen
##pran
पष
वशी
ori
ballabhagarh
manamo
aarake
nirb
pragat
##ashion
यातरियो
lagaa
##zraland
लगती
ऑसटरलिया
चनावो
##omy
कोड
##abandhu
chalenge
##aniyon
apaat
##havat
##डनी
fra
bripha
chaatane
##inews
छोटा
nigahen
beyimaan
manap
space
hiranyak
ale
sabhaayen
poonji
anjali
पथवी
kapaat
colombia
where
cow
intermediat
give
महास
farah
रानी
blood
saunpane
daah
samv
kadha
kaamanwealth
urvashi
##mule
paayal
धरती
taanaashaah
dharmantaran
आयरवद
parties
hataae
##ooh
maiken
paanchavin
mukhap
##ruta
kollam
##sm
modern
hatane
अनत
samekit
hairat
##rayag
keep
eye
कलपना
ishwariya
judaav
आकाश
lade
ghatane
ink
सीबीआई
mathr
##comm
तना
khisak
vaishali
kataai
kisase
ahuja
artist
jowar
##zim
warner
##chna
उज
agric
##asai
खाद
ghud
pahachaane
shoo
sakta
कारयो
piles
ksaa
सकषम
object
rajk
khap
bariyarpur
qab
lagen
imp
mej
mewar
1970
aadharshila
dikhnaa
janapadon
seedhi
haem
masi
suhana
pandavon
veshya
tambe
kartikeya
मामलो
##creet
##aaraam
eesai
muaavje
##dam
uttaradhikari
##rig
bhaiyon
starer
lifes
saink
bigadane
moun
milaayaa
tikhaa
##eedaar
khataron
karporate
baithta
patakatha
phosphorus
differ
sruj
खत
bhind
##bly
##cep
reserved
juu
##blyoo
rubal
libya
##oglobin
vaadon
##zia
beetaa
pradutt
uddhav
vahan
349
1979
piye
चिकितसक
##माश
manchon
thith
आशतोष
##yod
##anidhi
patte
kasbaa
saream
vandan
lank
##parak
laati
सफाई
cholesterol
##action
सवचछ
paatro
uparyukt
शवता
jula
सड
gurde
jindal
studies
आजाद
rakhega
38veen
##chint
##aamantri
chokasee
dewan
##aayon
thought
pairo
octa
abhimanyu
sankaay
pyaa
tatka
निरमा
bhakti
##qr
cmand
ket
##katha
##amachar
rakhie
dharak
फिलहाल
chaunkaa
##unak
shran
hallaa
abhinetriyon
byoraa
cour
mohini
दरश
vikasshil
strong
supras
rabindranath
##they
tathaapi
metal
paridhi
##hydrate
rashtrapita
dhah
alpiji
vishway
uparant
1960
rudrap
टॉप
spray
karypal
sampada
kubula
hydrogen
issu
carta
elections
thekedaaron
milin
hasti
##ोगराम
bypass
शयाम
baadi
pavilion
shahab
jhakzor
##eeche
sevakon
atalji
milani
बताए
##ligram
amazon
nihs
##chel
bandooken
israeli
kshar
lagaayen
still
##hart
फि
##वाली
birbal
khandon
arthshaast
##खर
crystal
jhalawad
##ст
बनाना
haazir
sahakaarita
मघ
##aim
kaint
##ावली
switzraland
paale
115
##orr
banaao
मिर
##baat
परकाशन
emdi
jariya
thikaanon
jinn
vyavasthaa
नद
##शाली
##yey
indo
aaramdaayak
palon
##फार
karaara
khaat
वाज
मनाया
kaunsa
##ock
samant
##mind
sikret
इनकी
udhyamiyon
##bhakt
nakshatron
pnb
swi
tikaton
chub
hami
##kti
chukundar
sabhar
ioes
rudra
chuna
zaroorat
lutf
दिखा
bulbula
बीमा
computaron
विदयालय
nasik
##osit
fiji
worksh
available
utraa
tuf
soviet
सिख
##ema
qui
##chakon
mohali
harivansh
##giti
##ridy
chhodie
कमजोर
aatmas
samete
विवक
bahumoolya
##waane
##तरिक
makaanon
सारव
##rod
lakho
bargad
rasm
oli
tana
mazedaar
journal
juuta
##aada
##apata
mukhaprishth
khushnuma
seenaa
##aida
dikhaati
kcr
muhurt
कजरीवाल
##porn
rajg
gopalganj
jesi
chupe
##toon
##zen
aayen
samaajwaad
ghamand
manamohak
##khtaa
rohan
says
shreyas
imotional
friday
khyaati
##manoranjan
matter
expres
parchaa
theke
sanyat
yuai
haraam
tantri
nota
sata
dhvan
shiva
vishes
drishyon
kancreet
visham
birla
ekstan
##tipi
##aakif
##सटरी
##ोगी
bandhuon
bappa
rati
ded
##दगी
waakif
navada
morr
##ishtha
shol
bhuskhalan
##daayi
arund
container
dohan
##prer
samavesh
##ratt
लाखो
emi
परषो
##परया
tall
kathakaar
shadyantra
chadhaane
jaangh
पोल
सकी
sankramit
dayaneey
भरी
##rr
damakal
zila
anandi
harith
सरनदर
jameend
##वानी
kharabi
gatirodh
mathrubhumi
anaavaran
करज
shering
samrik
nadaarad
tisi
##ped
bachaae
rajany
kabr
byaah
आदितय
tanatani
raushan
1985
##0di0
varn
doguni
vailu
pos
kangan
estf
govinda
dashahara
##aaren
##ardan
##erej
ujjwala
rahai
hamariwani
ee
सहत
jihadah
bujhane
gomutra
sankeern
##vadi
##लान
dem
thamane
karatin
jhelana
jyada
formule
##ॉजी
##यष
infrastra
notes
##aapan
medhaavi
##hard
riter
aavedakon
naastik
taana
##amal
##cyor
aniatik
kuta
naukareep
##जात
vishal
bisi
kahaaki
transfer
फॉलो
ekstansion
todna
kohin
niketan
najaron
शरत
sujuki
wardha
four
hansraj
aavaran
capsule
mudras
dhanwaan
jelon
##hem
dop
bansa
pashupaalan
##otri
amuly
utpaat
फड
##जान
corona
panipat
pairvi
फरक
pichhadi
निधन
jutai
kachhari
wishes
judana
##rame
तिथि
चिन
scout
परशानी
baik
shamshaan
manhag
##wart
##तिहासिक
vaaman
ईर
colling
##vs
##amon
##uez
उतार
maaro
saadhane
koshadhyaksh
शात
enie
kool
visheshgyata
##sanhaar
jeetna
sankhyik
pado
इगलड
kmsraj
pall
बॉकस
nirdisht
andaaza
##ayada
##aau
mandela
bhor
atish
##86
##cert
anushansa
उललख
##diwas
barti
##self
1965
batoo
muz
मासिक
sochen
परतिमा
ghotaalon
bataaungaa
bric
nauk
moor
##rapada
conform
kaaka
##hindi
rcm
sansaarik
protest
mukkebaaji
##hew
patti
##veni
##occo
rudraprayag
raveesh
##phiti
gangster
उपकरण
button
bhramit
अदभत
apanaakar
##cott
आधन
चलता
jaale
laksha
शीरष
naalee
pradeshik
chhatrapati
##सपोरट
इसलाम
##arohan
karency
bulaate
##rogen
barsi
conferencing
##titution
##गति
naarangi
kachnaar
जयादातर
##bb
giridih
बख
कपतान
kaaren
##initi
##apt
living
drone
wan
करण
prakhar
kabul
linon
takad
##ahindi
exams
vaikency
via
sudan
##toos
nihsandeh
shiridy
hell
##roscope
जिनम
esao
paddat
casting
समदाय
dalai
जमकर
v9
##uliyat
kaisi
chhan
peetaa
##yadan
surinam
sadab
purniya
suprasiddh
##waya
pruf
ami
चदाई
ghur
##wangi
pratispardhi
manoranj
bansawada
reliyaan
deek
naishanal
elbum
lifestyle
sadupyog
enarasi
farhaan
aja
interesting
सपी
##bhum
slide
phoonk
नियमित
##aprashan
concept
awaajen
vidhiyon
गहरा
मदरा
leta
पराथ
khara
तयौ
baaraa
##shneey
paidaavaar
##abdh
bahanen
##bhishek
छातरा
janajaati
qi
lautnaa
ghumta
gunjaaish
nirmaanadhin
bashar
padega
kharidaar
कनया
##anusaar
chhapamar
speakupforsscrailwaystudents
##ahaj
arshi
andhadh
##iko
bhik
नाराज
vacancy
##ais
3a
##32
seoup
wyk
##pathi
चोरी
sahe
daalo
ane
geeli
shreniyan
ghoshnaptr
kanyadan
jhadap
morrkhtaa
drushtigat
##aprasad
mudrasphiti
udaasi
कविज
kahanikar
##khil
asaty
tailor
परसिदध
गट
##haanon
kohinoor
##okti
पनर
##akarmiyon
##dashami
पारटन
sarvasam
ameor
##yenge
emje
rule
lij
ctr
181
antioxident
##लम
kaamdev
afridi
mukhaa
ककषा
janar
2a
टवी
##ett
namoonay
patang
giv
navvarsh
bhaagate
rain
yuz
jhukaa
##gee
ravindra
समाधान
taanaashaahee
##खन
सिदधारथ
##pattee
urug
mirchi
558
##yavar
परदीप
indic
birdari
वशीकरण
ladakh
hastrekha
vote
andolanon
जिममदार
fadan
galiyaan
सहायक
adhyaapan
भोपाल
chuu
hotalon
mauq
##deh
सवसथ
sonipat
shrankhla
सपना
अतरगत
##eeding
susaj
sust
sudhaaron
naala
organ
pregnent
sicyor
shravasti
##ॉट
##print
jaandaar
bolkar
learn
##isian
gumti
manhagaai
पराकतिक
ensipi
पहा
##udin
tuutate
##abai
paitr
##chikit
शि
अवधि
physical
dhaagaa
mukhyatah
##putra
महनत
साकषातकार
pahunchaata
father
ubhaar
##मती
commit
##asthali
##bekistan
##chhi
purab
jeevat
परणाली
bhidane
daahine
##aina
baniyaa
khich
tanz
activist
ततव
पवन
##yapurna
nuksan
##amy
sada
darid
chunanaa
varming
##akesh
vasteen
adhikarik
बहतरी
nodel
##ishat
paala
asangat
तयौहार
lao
break
gender
paitruk
बम
परिचय
saajhe
##टिव
sajaane
##pen
maanavendra
##hikr
##टय
##handas
vyastata
अपर
lekhpal
buz
handset
yantr
shed
ghazi
##परो
sunder
shra
शलक
inti
khang
daudane
परात
nishank
kriyaaon
पतरकारिता
khoo
bhadakaane
##asutra
pratigya
haste
resign
##tantr
##घन
bakshi
dulaari
yakrut
karkon
1987
jahi
misha
buniyaad
##brij
##pie
पीसी
पव
##ughna
san0
40000
##ukant
विटामिन
janajaatiy
gomti
churu
kisaano
##ership
talaaq
vikaraal
तरक
entertainment
tolaa
close
arier
jhulas
karuungi
##rophy
सथल
महाराज
chaahi
sudrudh
##chiyaan
chambal
damak
nishad
हय
##िताभ
##atech
chutad
panty
chaukaa
genes
ladkee
pivi
zak
jasprit
bahal
thu
chintaaon
taalluk
गार
##ros
योगय
##णसी
##ahak
##astu
amin
navratri
andhadhundh
vastutah
पराथमिक
webac
shatrughna
##leri
jama
nyotaa
kasht
हिमाचल
pakke
परीकषण
1936
baadhaon
bhagavat
saag
chaukeedaar
mushar
sartaaj
phej
samta
नयी
joke
किडनी
##aley
##vanaa
##जनिक
##vaya
##paalan
sammohan
wealth
bern
##agraha
humlog
kre
leban
1886
magnesium
darvaaze
susajjit
aryaavart
banarsi
kaartoos
handp
kritag
रट
caments
##mbo
padhaayaa
mahatvakanksha
zindgi
##वाडा
palak
गणश
sateekta
##ghi
10th
chhad
परदषण
vishwayuddh
##vakon
using
##hasthi
भोज
##ापति
औष
##garian
rip
haathiyon
manoranjak
asurakshit
forex
bablu
hansnaa
maukon
arb
परयटन
infrastracchar
aatms
trekking
##सास
aya
सफर
##pranali
rapat
ushaa
yadava
##pari
sharkara
prasoon
takht
##yatmak
##sarai
##rusht
bhanu
ladai
fren
##रोध
laaja
##atya
samaajik
राजन
सवततरता
anki
##gary
##fort
##gent
malayal
मणि
##jana
##तिया
##थो
aghat
175
vee
during
dok
itni
kshanon
##anjeev
youtuber
खलासा
chris
##खणड
excel
##oking
provide
ginis
deewangi
hausale
adani
योगदान
##79
commercial
babaj
ullas
##रातर
सतो
kifayati
arundhati
lakeer
dikk
subject
sabhaaon
सजीव
daalati
सतरो
##अल
maafi
ratri
namjad
दोप
परकति
chakka
vilupt
##akumar
stress
langik
##rior
possi
gazalen
activity
manapsand
bend
krom
ekagra
incl
lagjri
##bsite
laajawab
यात
sammukh
kshetr
mustafa
rajko
pradeshdhyaksh
##ajna
barbaadi
scindia
vishlesh
जाह
ceiling
janan
hyper
sikhte
##yl
##ोधित
इडियन
आसपास
brokar
really
loktantrik
naabhi
ghis
शिकार
married
rozaana
monica
gyanavardhan
baio
prashaasak
shul
mohandas
fatne
chamba
##दशी
loot
une
samraj
##old
kabhaar
सरवा
##undai
datura
placement
haemoglobin
##clear
balikaon
hrid
##बिल
मीटर
dhaage
pahiyaa
fadanvis
##vadhi
madars
muralid
soha
shroff
siddharthanagar
sevi
महश
mos
ganmaanya
websiton
विर
oun
pradosh
sohar
##eekruti
waite
रोकन
hogen
##rt
ajwine
##hade
nind
ashav
##िटड
##फिक
nichod
##khwaah
kaajol
malayalam
##तानी
##aayitv
ansi
geeta
gina
suryaast
sidd
##anganj
dhobi
##ivasiy
akl
##asekhar
एजसी
वीरनदर
gunagune
डरा
multiple
upekshit
kaatna
rhea
scientist
phixing
sundari
charbagh
##klev
ichhashakti
shatruta
##haasana
सफद
format
nanhen
minial
cafe
##yakaal
bots
##तमक
saarini
अभिनतरी
saalo
samyav
chumbakeey
##aagrah
kalatmak
ophers
##barg
parisam
vict
पलान
swine
rivyu
##inia
dharmaguru
jhelni
husn
पदार
memorial
carbohydrate
vishwahindi
तलाश
parikshaarthi
मददो
pies
marataa
scale
##tap
##anies
madhurata
sako
shoshit
145
##ardi
laaj
dastauez
sookhne
baki
sanv
jatigat
santakab
##uktha
bijnesaman
doot
##चीन
रणवीर
vargeekaran
kadak
डो
kakshaon
guideline
federer
pizza
pyramid
सकरिय
mout
duulhe
vishwahindijan
bigade
##avaad
##ucheri
khay
लकषण
varah
बरह
boni
posting
aapan
thili
khelen
गन
##maas
##nashak
gaddi
silaai
atyaa
कौशल
asamanta
sadabahaar
##ahad
upmaha
emsi
ravidaas
bageeche
baqayada
vidhik
vl
copper
##कम
##utata
duryod
issues
sarai
घोट
disc
अरविद
duungar
almoda
बाब
dandit
exis
sanam
nij
bayaanbaji
ऐड
brijesh
naiy
##akshaverti
anukaran
ukh
chadhaai
filhal
batt
##neeya
##pact
तिल
##पान
##ody
chuunaa
duryodhana
दबाव
karatu
नवीनतम
shanghai
muqaab
vali
##सवी
bhatt
qarz
सझाव
barkhaastagi
oonchaai
bhadraa
##uster
sharnaarthiyon
फला
##ager
bhainsa
naukareepesha
buy
ibps
##ipro
##atu
dhyey
avam
lax
bhadra
pta
##hans
naatakon
dhokha
ateva
भरा
170
nda
fashion
1a
##lle
chiraag
असत
ससार
padenge
registry
##rityunjay
जॉब
bhugatna
patale
##शरी
judwa
religi
bukhari
निमन
##yanand
राशिफल
हसत
khile
mahine
##ised
guzarati
pariyojnaayen
chitrakaar
सदसयो
पारिस
महिलाए
bhogane
chhayavaadi
##aje
शहरो
mudraon
venkat
messej
7000
##amaa
rudki
##करो
##hakur
सागर
##haraam
##andon
##शरषठ
ankiv
ibaad
##asis
chunautee
maitri
janon
members
petm
daaen
bipiel
pregnant
ungliyaan
ऐतिहासिक
झल
गोयल
adishan
pariniti
##kaara
lautakar
radhe
##94
kadhai
##दौर
sheetala
shishi
suvichaar
ext
phalgun
yasha
doub
method
safalta
paril
##upati
dimaag
naush
gaming
nirgundi
##a¤°
pike
अजी
##uhaan
bsd
kw
##oger
jamaav
##रोज
conductor
huwa
chunauteepurn
zwj
scot
171
मिशन
blogs
yaq
greesh
पारिसथित
vishleshak
अनमान
sulajhaa
एडर
nevig
rina
##aring
footpath
सनिशचित
lucknow
##rauli
prafull
yatraaon
##haur
horoscope
jaals
ni0
jyotishiya
nigeria
rewadi
lauti
kamanaa
riection
asthai
##सथा
##hip
congo
karon
durbhagyapurna
nawaz
ow
कारयकरताओ
uttardaayitv
##faa
nursery
ekar
adaaon
dusro
rashtrabhasha
##900
##isar
socho
vishyak
vimaanan
upiessi
angoor
सकग
हिसस
अरथात
apike
##rack
programing
इनका
दगी
kalisia
##mumkin
##haru
tikaakaran
tsun
##ireekshak
##tapurvak
##oba
khadaan
friendli
##xin
साझा
malhaar
karwaakar
अतल
sabharwal
kadava
गीता
puraatatv
शिल
##geshan
जानन
solutions
##gle
##36
##deen
सरल
thum
asankhya
##बधित
machharon
ss
pravritiyon
chhoot
डाक
##ubasurat
सारवजनिक
##keem
svachlit
shmashaan
mastermind
vritt
mauqaa
##antosh
sampadakon
kataaksh
##ole
1972
aradhy
chaatna
dumka
pratimah
banj
परभा
anpadh
lebar
kamiyon
##stars
bec
##दारो
lesbian
##antry
##att
gruhasthi
##mek
osho
apko
sele
##rapur
आखिरी
टन
ajanabi
मारकट
##waaraa
किलोमीटर
utregi
cities
milon
pahante
utr
anguli
husband
थान
adal
combination
##zy
ramakrishna
kachhue
chitthey
mejabani
baaqi
karypranali
rahasyon
##asta
dably
टय
##etar
gathjod
sauteli
inami
founder
कवर
bharkam
सकट
biscuit
janpratinidhiyon
##ни
darana
##mukt
pachchis
samajhaate
mashroom
vaishno
पराम
ऋष
congressiyon
220
suri
sainkadon
##odara
paalane
sabooton
jaaiye
साथी
raw
कलदीप
oont
kahuun
badaae
utsarjan
uthal
jarjar
##sky
##inod
sarvang
topper
chamo
aksha
were
anganwari
phulpur
##bay
##push
##antron
krypto
traffic
pahaun
##utu
echivi
यव
vednaa
परशिकषण
##eter
##eselvi
daraaj
prajatiyaan
khamb
goraksha
avivaahit
sciatica
aayat
दखना
##ahaa
##सफ
disco
##aira
##upur
lager
किल
##usion
akhaade
steps
##vor
सपतति
tehra
swy
gauraiya
ghaat
touch
barase
gandhar
rajkoshiya
##iyya
echdiefasi
naammumkin
yathas
जाल
दिमा
##fik
atmik
सोना
mandap
##priyanka
ssr
आदरश
newton
धनयवाद
aapmen
##ashyap
डिजिटल
lubhaane
ctrl
haidar
hide
manchan
muskura
##ов
gussaye
##ajanak
asardaar
##anytah
parche
diem
इतया
जिसन
dhokar
tail
##aavadi
राघ
hole
andheri
ada
bhur
आतमा
mehfil
buraaiyon
मोह
printer
चनन
asahmati
ulajh
anuyaayiyon
tsunami
सचिन
harmanpreet
nico
editing
अमिताभ
lub
##uson
devaki
##azal
bachaai
##unus
##yara
ediji
lug
बहतरीन
##hashri
deepiar
##endi
##udiyon
sidhiyon
##esao
arest
##सीसी
पारिसथितिकी
krurta
bhanji
uid
##पित
katipay
दोपहर
pratiyogitaaon
##opur
magic
##akta
jeni
khash
##aravind
##beri
##iver
##ador
आजकल
pend
yor
मिलत
sammel
bow
karauli
thaak
visthapit
kep
milf
निरधारित
dinakar
wol
जगदी
chippi
ashwag
forest
1800
ganesha
bekaa
asweekruti
##vinay
enfield
hajipur
##angir
##face
romanian
गोरख
chhatarpur
khatti
sli
saji
अरविनद
tushti
susamachar
##oomen
आलोचना
##मिल
jalota
राह
manikarn
varantee
##cid
pratipurti
##engers
malgadee
पहचन
ओवर
##shaayen
maadaa
seremani
dant
##blog
##दवी
dilr
##raaen
##यकला
ekadivasiy
##clare
चनौती
maud
reven
chuuhe
oper
vikipedia
devan
pratadna
experience
bechaara
praadh
epasi
maaj
pakane
mukhtaar
kitnashak
##शाला
##tij
atend
pallavi
arase
kehalaate
naino
taarkik
client
kairana
haris
conklev
cn
##लिक
firstpost
शाहिद
##avani
solih
आरय
karmkand
minerals
woomen
aaar
entr
##74
##niyon
smartf
praanton
kwali
dohari
वयग
lakshmin
bitha
dadri
उचित
##दरी
singhe
सकार
अवशय
past
dilruba
iko
unnayan
##fied
apratim
dirghakaalik
##aise
##avash
vodaf
ekaek
niztaa
afra
simran
##ayatra
kind
anveshan
mayur
mahapurushon
naal
raseed
hasarat
feature
rems
bahaav
टकन
adw
bhig
बढन
contract
##shans
darshneey
hiranyakashyap
asahaj
nt
prashaskeey
qurbaani
baas
नियतरण
uf
वाहन
hanste
fab
ips
vodafone
yan
पॉ
##पक
shuddhta
fakir
tafari
करिया
विविध
halake
##hauragarh
nauni
nirnyon
दिय
kalantar
नीरज
##apil
dawaaiyon
ghuscand
##ukesh
discharge
bhadrapada
उपभ
girlfriend
praadhy
##hadow
thukraa
bekaabu
टकस
##yanta
##जिया
##oongi
daboch
prabhutv
सधीर
soob
##alaal
betia
##राय
paridhaan
कहानिया
##sani
##टका
yusuf
रिल
##iser
mei
singhaasana
karmveer
ld
##jade
dryver
पापा
##nihit
akelaapan
दषटि
saatvin
लगत
barahavin
bharta
upavan
##ctures
बचान
saxen
highlights
##ographer
juhi
kataraas
ललित
asin
##aheb
seenet
नागरिक
##lani
maaran
shrimadbhagavadgita
##shin
kamiyaan
likha
utpaadit
नीतीश
##math
pithauragarh
pero
navagit
##inkhal
सॉफट
लॉ
##शयाम
##virodh
nakaabposh
aatmasamar
nita
vivechna
##rashanth
always
drawing
gasht
cen
##bood
##utub
पतथर
##jagat
parmparik
182
बजर
##याज
raunak
academik
tirthayatriyon
io
taalane
imaaraten
kru
jese
##akes
##asagar
103
himalayan
इम
##pn
एकतर
टिपप
uttarkashi
dhimaa
bahata
##rism
तीनो
gaae
chauthai
jubaani
sikha
एकसपरस
mysteries
तीसर
bela
sweekaarya
##panchami
ईशवर
weeks
faas
martha
funding
##andip
banti
अबदल
mandara
अधिका
शिश
cashback
bagdor
##85
exe
मझस
baandhne
takh
##allahu
uganda
own
खती
samira
chita
##ishiv
##avinod
tane
hitler
##ustise
वासत
भय
norge
kadiyon
scolership
fus
racing
hey
ghataakar
##shiram
centi
hastantaran
मकान
सपोरट
jhadanaa
reserve
##सिह
aatmsaat
लगाई
sukama
kisino
##ganga
उपसथित
dhaulpur
maangen
asaliyat
##vaaya
awajahi
##ankit
ritesh
vikray
mishram
durghatnaon
zero
badhaati
हजारो
bombay
सगर
छवि
ghabra
carrot
गाज
pief
##aranjit
ससर
stotra
##asanjay
##rode
##लील
नाथ
iv
parave
नती
##kaaya
tabakon
kathputli
morocco
##mrog
रासता
घरो
sharam
##abian
napkin
andhe
swimming
kumarap
टवीट
वजन
katate
##sunita
jagaa
112
maahvaar
kumarabi
##iyaar
##bhaum
sloven
kanon
vivaahita
unhonen
kadavaa
rugveda
##iyang
charmrog
##arakesh
##himanshu
इतयादि
##wasi
raz
samajho
malum
परतियोग
nabbe
##asaiyad
##ugs
##tout
lipic
sinhash
mohans
##aatmakataa
##tial
##adharmendra
टिपपणी
##adilip
profesar
prepar
##avalmiki
##irajiv
माहौल
zabaan
##shishok
kumararaj
projects
##adinakar
kumarabimal
malkin
##oksh
harak
madhyavadhi
maandand
##kover
sunati
chhind
##tist
nemo
pudinaa
akhandta
nh
##abal
dj
दतत
aaya
hungary
mantar
myanon
udne
supremecourt
kholen
mohar
##वीय
दात
विषण
lahaze
daraa
pakaa
badlaavon
brit
##ikat
barikiyon
mukhi
खिल
सरकषण
alarm
##lij
vidyar
filein
shubhachint
grading
paj
गपत
##foot
nishaani
sudama
पडगा
##mishan
jaden
असली
durdasha
gaum
pichhadon
anaath
janadesh
कोच
होटल
##yapit
##ahim
malbe
##cript
vank
kamaaya
महातमा
आहार
anubhavheen
khichdi
निरी
ehsaan
##fin
khilaayaa
ekster
nyaayadhishon
मशहर
margin
testing
हद
uzbekistan
eksternal
##जनन
vyavasthaapak
jodo
girnaa
सरवो
khaufnak
##ujar
nipataane
aatmasamarpan
##aphi
sardar
अगनिहो
uska
prostate
paraaj
##opia
ghuse
ghabrahat
hamaar
##shank
##rush
arthon
बचचा
##धिकारिक
harj
tankhwaah
lithu
sarkal
समझौ
skirt
##तत
shariq
bhilai
##ulia
##ristaan
hn
##amata
##dhaari
hotels
vaardaaton
jadd
##akti
vadak
chhidak
hataanaa
splc
आधनिक
saarvbhaum
लिसट
dasham
##livele
spllivele
peedief
sadbhaavna
basi
रसी
developers
parn
dahin
malawi
##रख
##obhan
##anaayen
jagadalpur
splcwo
charles
karunanidhi
##iler
परोड
mahabhi
##onia
रचनाए
pokhari
232
##rati
gdp
anarakshit
haty
confidence
कोरिया
rujhaanon
brid
##ulhe
maans
paigaam
sarad
swaron
तकनीकी
going
महगा
6000
kahab
madheshi
basoya
edward
अगनिहोतरी
##oka
तनात
नवा
satyajit
दखी
indrani
karagaar
फॉरम
joko
banz
kabad
biessi
janmdiwas
आधिकारिक
##pathak
##inidad
slam
इजीनियरिग
##dik
पाई
##eroid
##dekar
सनदर
mukhyamantriyon
khilad
asthi
naad
##uche
swayamsevi
##udo
nishpaadan
pratibhaagi
duungarpur
soobedaar
juice
celibratt
karavat
##ashr
bechakar
##lti
auron
juker
satte
sek
janta
graphics
ponch
obc
fox
अललाह
rivaajon
niyamanusaar
दीकषित
daudte
##shirsh
jugal
काला
shivraj
nukkad
anjani
##सती
parad
kaveri
चि
##avedh
srujan
##दिक
pihu
##aaram
friendship
afjal
##hayega
##orrho
dahez
sunsaan
dabo
##hhh
saamanytah
updrav
faj
laaen
kabutar
pahaunchi
doklam
agri
सपादक
##shant
antarast
लोकत
shyo
shape
पाना
खरीदन
##gopal
karaayega
##200
padhaar
ghaaton
byora
stick
mandali
पराचीन
johnson
vishakhapat
todo
बचपन
##नाड
burhan
bharosemand
##बली
kalesh
vaktaaon
shikari
dafan
अयो
dabi
##kaaleen
750
klesh
antarastria
janase
light
abhishaap
##गड
massenger
purnataa
##win
sanli
silebus
##ablyoo
gole
अभिनता
आतकवाद
turm
kaum
ready
कव
मकति
##ilitre
##cur
##apaal
##dhantik
dadi
नपाल
##unal
taqdir
ankurit
gallantry
socialadd
marathon
pratibhaaon
lonch
kotwaal
broadband
गिल
milawat
nitu
annaprashan
मकस
gazals
घस
shakeel
bricks
pulse
halaaton
modul
##rani
##31
karaayen
shaiv
ghrit
रडियो
khamoshi
uidai
yud
पय
deta
doharaaya
narsinghpur
चाद
nathuram
prahlaad
paudi
guruji
pt
swaar
gunakari
smartfones
pahunchaai
पनना
janapadavaar
anushaas
mahua
kazakhstan
bharmaar
##parishad
##eru
aswasth
रपया
persons
jukerbarg
177
बिलास
##isation
udbhav
##aajal
shabdic
foon
tiarapy
dhananjay
लिखी
explor
panhu
amaruud
वाजपयी
##lips
दसताव
mrudaa
##कारा
परतियोगिता
bhootpurv
apanaaen
cluster
##अरथ
ekbar
mahasam
bhautikee
mudrit
bewfa
##शास
ministar
##ctc
piriya
dhoti
##chiji
phenke
तयो
##सीम
independent
riletion
piriyads
browser
18wein
136
abhadra
saadi
chillane
डायर
बटा
surakshakarmiyon
nivid
meghavaal
rajkot
safaya
mulgim
aans
prashnptr
sanlipt
gaaye
baariki
gazab
pill
eses
chic
gautamab
बजाय
vidyarambh
yukti
utprer
saamaanon
##askar
##ites
aryan
naadee
phere
saidhantik
kmsraj51
neude
avrodh
chakit
आफ
inse
imali
piyushgo
shaakaahaar
mev
##max
courte
##oid
neki
jakad
nipta
आवास
##lata
सौरभ
##tib
##eshy
sanbhali
फरास
##सनी
##ahoo
##chya
sahishn
kaagajon
wireles
समझन
##sisi
बरहम
aatish
khata
राठ
junk
chikitsakeey
dimagi
अयोधया
vaisya
khandpeeth
a¤¸
आगा
najariye
iken
andi
pahu
बिलासपर
unko
musuri
अनतर
50000
होली
##ashaastra
ambik
पवितर
bip
liber
plz
rajni
##aff
##कोट
hilaakar
haki
janpratinidhi
##परयावरण
paraajay
तह
990
##kit
##avai
एकटरस
halaf
##antukon
ditels
यवाओ
##ohan
overbrij
बाइक
##bhajan
uljhan
##dham
##anan
दिग
##fli
itr
likhaai
परतिषठ
12wein
##akaaleen
##fficial
##avaadee
tatva
jol
bataaiye
khadyan
##maya
tote
##pindi
##adit
actors
आतकी
##अरथवयवसथा
koo
##manand
courtesy
haivaan
korporation
zul
patake
mobiles
jarnlist
ससाधन
satna
samaveshi
rongte
पारी
##khabar
parikshafal
aanchal
motivet
adaakar
saurav
jurmaane
upmahadweep
lakshminarayan
chunate
khinchi
sajid
##धारण
arihant
baithen
bechnaa
आकार
anan
chunakar
bachhendri
##harm
musharraf
yudhisthir
arsh
saapeksh
##thal
moin
dishaao
alab
योजनाओ
nira
दलो
##tor
##ele
ambes
jake
550
2s
nanhee
##किल
possible
##rates
हिसाब
nris
could
##cies
tanvar
sammelnon
##hada
hoob
podcast
eespi
लव
##arag
maahvaaree
humsafar
kadiyaan
##vary
मौज
मानत
mughalon
दिमाग
ster
compo
phun
peg
svar
##oshit
##कसी
protection
nakshaa
sabaa
bidio
anwarat
kevi
trail
corner
##टिक
ares
ghas
अवि
##shajanak
chidh
shrinivas
upb
सनन
##खिल
apriy
परौ
crude
gujarata
##vian
##farm
barkat
atoot
birsa
समदर
##zmi
sakat
##heenata
पररणा
kaamkaaji
virat
tus
samskritiyon
592
dikhenge
bagwani
dhajjiyaan
घन
bahrain
##वासियो
muhaavarey
prabud
colum
chape
puthal
##वो
museeb
difolt
nelson
sth
munni
scientific
mojey
paraali
ounce
##shti
ankhe
amanviya
jaaon
sambit
narsanhaar
paatra
bharatvasi
320
##aritu
vyaakhy
##faaz
saunf
ekajutata
सकारातमक
chauraahaa
साइस
katni
nagad
virk
prek
bring
jeepies
8000
vikrant
chintak
uparajya
mehr
परदरश
##shatabdi
ikaitha
brahmacharee
neuyark
यातरी
vindhya
rutaba
hag
##काउट
##asaram
ujala
tanav
##zo
##rasingh
kaddavar
निदशक
kayak
##upha
ensitii
कशव
131
##manchal
उतपनन
##adal
operator
vihip
raahi
रचनाकार
shiromani
paurush
uparajyapal
##nim
hoobahoo
kharg
##dara
thanvi
bundeli
chatha
sallallahu
kuubasurat
hoshiyaar
javaan
bikhare
visangat
chaudee
iceland
tatanagar
tanot
baalkrishna
##मरस
आननद
तलसी
##holic
ganj
alian
panditon
मालिक
satyapit
karnavedh
padana
pankhe
karavaaen
मात
majithi
anumandal
##eech
katori
किनत
mauton
ramp
##orat
pradhanadhy
##साई
ranjai
सटट
concil
freedom
icchit
ejamination
pilaane
gheraabandi
momin
adhikta
engeen
kholana
corn
chukin
परतिक
tallent
##hoj
richard
talk
payment
fadar
neeli
girtaa
vyakul
##ologist
puspa
joy
maruti
shyopur
##alt
##aavi
##biti
chicago
chacha
aagaah
दवनदर
##uc
stores
##a¥€
bhumigat
##kt
शाल
braz
matbhedon
लिमिटड
##jayi
ततर
##पद
rekhaa
namvar
पबल
##yeya
sweekaaren
149
agriculture
ibaadat
synd
swedi
stechu
habib
##keemtee
##ра
##hamen
lokkatha
khilonaa
taskar
अखबार
dilaate
dhardaar
badhaara
folder
##pher
गिरीश
##okta
manikarnika
dharana
aayojanon
panchkula
duaen
##het
susti
dealer
sper
trish
mahilayen
kanha
समसत
pahile
##gur
swedish
##arajan
गरहण
उममीदवारो
greece
labh
avril
khoja
##tod
samajhie
ipo
पाय
string
chande
इमर
bandhi
purnataya
cumshot
विचारो
ashwagandha
##ences
khesari
maidani
dani
samvath
isvi
mrinal
kapirite
डय
utha
अमल
रघ
khada
vidamb
निरा
##salman
biknevaali
nina
##62
##hist
##amukt
halaala
aayojak
yathasambhav
vuman
supaari
giriraaj
anayas
##andra
irctc
२०
baagiyon
##kila
tij
##grih
dabwaali
boycott
beshkeemtee
##sssc
gopi
murgipaalan
sheetakaaleen
senaaon
baaju
parvari
betaab
झठ
nimit
concl
organic
sochie
अकषय
sasaram
बतान
##sible
##gaaron
vadodara
##arashi
prahlada
पावर
dos
janardan
muuli
khiladinn
चीजो
vanshaj
puuchhen
five
##wegi
##aaniyon
##sarat
निरवा
##इए
gate
sunday
jyotisha
rasoiyaa
capture
kik
ahoi
kanker
victoria
##charita
muraina
fam
##tile
abhijit
murtiyan
prakshepan
adaakara
utkarsh
grihasth
##ushkil
वरलड
##nand
pencil
##jag
behen
trakon
antarang
##vikas
ubharate
muraad
परारभ
शली
gharaane
krishak
guton
society
नामक
ef
अमब
bucha
prayat
taise
vrind
khir
shaala
##सरो
pralay
univer
##badd
parform
टाइम
बदलन
1981
majithia
जला
deazal
##sama
बनाय
gandhin
148
sivam
milaap
costa
##chhik
manaae
ift
kod
##shisht
##िवरस
shammi
mahakaal
##master
##kishan
##agirah
जत
##mission
watsap
##yothi
ekikaran
vrihad
bajaayaa
jalor
gangaajal
piemo
aging
khiladinnon
##jai
##wastu
saahsee
paagal
vrikshon
nike
##hiddh
beet
##cking
##ॉरम
parivartanon
saalagirah
urban
khalil
drusht
चलान
complete
##ets
harvard
padaar
दिला
anany
##ajanm
इकाई
##opanishad
pd
parvarish
##antpuram
wolet
nagdi
bhaaluu
टा
##lite
147
daavat
jhug
lode
hadap
carabian
lipat
मानना
हाउस
सजन
सचालन
बरस
vaazib
##acho
##toms
karodo
nyaas
sakengi
dhauni
पौध
ghinauna
##apon
yatnaa
rashtri
सममानित
shatranj
berm
gantavy
koharaam
##wegian
cf
nakshe
matam
suthra
mastak
खली
daya
##जमट
raahu
danpati
hussain
mental
mandar
##vasna
जरा
##abuddin
collector
samajashaastra
namakeen
##hoshit
##ugopal
vilakshan
dikhaave
came
sundarata
quarterfinal
##sai
dhundhala
professional
hatyare
##adia
bitne
vaadi
##onga
curry
badrinaath
gandhinagar
ऑपर
madhopur
pahunchaate
austria
mritka
sef
walkover
bhatte
1944
eches
paya
डराइ
##खयात
karela
shashik
ril
jahangir
##ozgaar
jehan
wid
भाभी
ताप
shinaa
bijapur
##fect
phalke
##कोरट
भौ
##पिक
lebanon
vyabhi
shishyon
napunsakata
##akshith
##dil
aalochakon
netao
tol
khilji
pitam
dhulaai
जितनदर
maataaon
duh
prishthon
pilaayaa
nadaan
vaahak
shinaakht
nibhaataa
piyein
champa
आईपी
जयती
##garon
bsp
##खया
##maur
##काता
##agh
##ishap
ejini
ubhartee
phon
आह
##खला
वरषीय
ludhak
शनि
हकी
हरष
tandoor
zeen
##abhasha
chhaae
dikshant
##khat
##rapha
chatpati
niraashajanak
darm
likhu
upnivesh
golf
tirange
mukhauta
##wave
दसरो
##ivani
ehi
parikshapayogi
indies
buja
cmd
inko
परर
##metric
athletics
wait
##ayegaa
परकट
##ankal
परतिभा
##kshak
reshi
khalid
##कामना
sudhaarak
151
mantralayon
abhinaytaon
सिया
muskuraate
bb
##ск
##active
पछता
jodate
maathaa
kasbon
##एसएस
tavaj
##dharakon
padhnaa
rakhegi
गठबधन
##monia
options
kilowat
anguuthe
##hela
finland
vivekananda
pahonchte
kashi
loj
kra
rictiyon
##वाय
##दीय
##nekar
sarrapha
##ikaar
दनिक
indradhan
safe
हालात
failata
banta
ayaamon
##ues
venugopal
##udesk
shikshaprad
टरफिक
##forish
mafiaon
parsparik
परपरा
khut
chuda
निरमल
rubarudesk
alpha
swarozgaar
mausami
padhenge
karaayenge
##chhe
vikrut
raza
मानयता
dhans
##fish
baandaa
urj
sunni
urad
चौर
karch
siforish
taaz
उधर
jansang
halaki
pandraa
paaungaa
chall
kattarpanthi
##hind
##adaari
khaded
hashim
lingayat
pataakhaa
prob
fair
pareekshak
##ujaat
mongo
##itation
indians
hemorrho
विशषजञ
broujar
kankal
prom
बौ
konkani
##opathy
aanchalik
tanker
##afar
##तिषक
byaap
pinj
लोकततर
##rect
बचाव
##raw
kharif
rashtron
palang
shauchalayon
swytt
##itar
rekhaaen
saumy
वयवसाय
nibu
##idents
naw
konon
ejiniers
ashishn
colombo
ejiniyar
samprati
##scor
boom
shankha
majahab
janmasthali
pusht
##jatan
कीरति
sadq
atmaaon
कौशिक
gobhi
darshanavishwa
quijghatnachakra
vargeekrut
##sta
महरत
जीतन
tish
sarat
##akia
daampaty
##mill
##arbha
##lax
##vara
##rilla
##ोलॉजी
cambodia
lump
aties
rabar
##habha
khane
ramadan
परोगराम
khana
जिनदगी
##anen
##परीत
chashme
taapasi
jamaal
ultra
##dieff
bhivani
137
pratya
bhidnt
dhat
अमत
##lis
electran
समरप
kangra
anumodith
pote
dwibha
rtr
##rents
चारो
prakashkon
symp
इश
plag
naushaad
##akosh
##uron
gunde
anupasthiti
jagriti
उपन
daire
1929
ahmad
bhavishyafal
andrew
jaddoj
apakam
billiyon
tushtikaran
aalas
ija
miya
##life
##dhee
niyamo
apadated
##eergh
ford
webacam
todate
sangharshon
vaadiyon
visil
##rava
atmahatya
3d
leyoni
udaseen
pokharial
apakaming
सवरण
##ahiyaa
shen
abul
ticket
##asaheb
udaseenta
tokyo
siforishein
##lock
cheri
used
tiruvan
jaish
batayega
भजन
##aavaan
pk
girti
sillection
sahuuliyat
inw
rakshaamantri
scinar
1956
kamb
siechasi
jantar
##करता
hydrosil
##uter
##cleen
rist
sushi
jasline
mati
balavaan
शिवराज
jholii
##illiars
karanevaala
satyata
aii
naukarshahi
2ji
##ottaree
changer
afvaahon
vanaspat
परयाय
bahug
tree
परबध
parul
roopantaran
prayasarat
radhakrishnan
ambikapur
सिटी
poll
pistaul
##mev
बधाई
jeii
##prise
##वज
##chakit
glowing
bagh
लागत
##नर
kolaras
vriddha
bantwaaraa
kuwait
##dah
jataane
prastaavon
zambia
ola
liqu
rukhi
karamchand
vrindavan
##bhak
naus
auchit
हवाई
indrajaal
आना
ejiniyaron
dakshina
shaman
guzaara
aapad
panji
jankari
pratikriyaayein
रखता
millilitre
##kut
nazadik
जितना
udh
unmaad
शिकषको
kaas
penlti
nehwal
##टीन
##idhi
udyogpatiyon
khashogi
reet
upj
##anjit
phaaydon
nishkasit
vatting
tya
jacleen
european
technician
##पडा
##ito
county
मजफ
elo
prayogon
chau
##antha
laharon
yaayavar
##सीय
पाठको
shreshthata
bachal
marod
khoon
thun
taaala
tareekhen
maq
shaap
meaning
##fty
लगाकर
pahonchegi
##dica
patniyon
छोडकर
siddhashram
vilaas
रोल
pitrus
putale
makkhi
aaysha
चौरसिया
users
lim
chamoli
anupasthit
taaqat
arq
gajal
bif
bichchhu
##ground
diggajon
चिप
sarhad
charlie
guzarish
tarikhon
dibet
##eernagar
sandeshon
मदन
महल
vande
broadcast
bhoolanaa
resham
##ech
khandwa
dausa
hemorrhoids
fame
##maananaa
criminal
##cross
सकड
changul
papeeta
कारयकरता
##edhan
udaah
kree
nipun
marwari
ganja
##henge
tumhari
handpump
manaanaa
bahaduree
nr
मसतिषक
boote
नीला
डाला
chant
##vinder
hayaat
itte
asagar
slog
vidit
peedieff
gatisheel
##adiv
khamiya
roki
pooj
lop
##hang
##egaanv
harbhajan
nair
bhagaayen
specialist
urugve
nrisingh
bhaarat
krne
##याब
purvavarti
jaang
jahanabad
chaudaai
aarakshak
kaaljayi
##asing
aagantukon
avmaananaa
chesh
##वरड
oona
sushasan
तमिलनाड
wanon
director
sarak
1918
salwar
shaadiyaan
najaya
employment
##akalik
apman
goun
sivakumar
paakhand
naatakeey
कराई
##hayen
बहादर
funny
dont
##भाषा
कलास
##baddhata
khamiyaja
cader
kaaravaan
punj
vakf
##gadiya
paki
magaram
##हतया
woman
reception
logan
टरप
kong
tarik
ulghan
लाइफ
riyaayat
##ister
मजफफर
rop
tyag
तयागी
gorilla
chintajanak
bhaap
akhbaaron
अतः
navaz
drow
darshane
revenue
pii
opinian
शतर
sori
battery
jhaj
becog
nimbu
cong
metab
jalaayaa
##stand
fevor
##लपर
karaayegi
kaurav
rashtr
ढग
abhilaa
convert
rera
siemo
1978
chhilake
##prati
guf
##yya
mariyam
सनान
avasthit
symptoms
अनना
optical
##gandhi
kamane
devband
polit
quali
sakhi
likhie
a¤°
fevorett
pix
धप
नस
alti
bhaat
sugandhit
daravaaza
उपभोक
mannath
jhansa
##oxide
sahir
coupon
ashavgandha
##garia
dhing
ugc
##iyug
##फान
##eman
saala
shyama
##opari
pahuchane
##jiti
सकलो
tehre
lokayukta
दबा
परोज
mahanata
peru
फलो
काननी
machuaaron
kasi
siris
vairay
kasturba
जगल
upnagar
मितरो
##षिक
##िरो
hokig
chotein
##isht
pakora
little
dies
safuddin
telegu
amaanat
becoground
interp
##ashahar
ashishnutaa
rajdeep
सौदर
पख
बको
bhensa
दायर
punarnirmaan
kuri
choice
baapuji
वयगय
vairaygy
natijatan
sikud
randeep
कमपयटर
odi
##िफिकशन
chhindwara
padasth
bair
peti
dabangon
investi
chaukasee
खडी
##andhi
रचि
adhisha
परौदयोग
kansa
shatruon
aazam
durbalata
haii
kada
##cp
adar
pakoda
sharnaarthi
buchamark
killat
picksal
hattha
डॉट
udaartaa
td
keke
spring
cg
como
jagamag
tikar
squad
sataa
दीपावली
jiem
##gardee
uthaani
ade
chakki
jahrile
rico
jalte
liy
विदयत
bhavishyavan
aarif
##bri
354
bhanak
aashcharyachakit
egg
abd
tumhare
naukarshah
saise
##ribute
ugravad
##kor
##नायक
khojate
##ukar
parmar
downal
nitant
##pith
honevaala
इसती
turkmen
tution
##peti
terrorism
##yaka
akhaada
workshop
##गरा
pradhanadhyaapak
##sakhi
margshirsh
obio
vyapam
triveni
analimited
pukaara
अरजन
कानपर
khargosh
कसा
##mers
electranik
covid
होनी
asanvaidhanik
ulte
peetane
huve
tadakaa
amuk
ashaavadi
ncte
##भाल
##inku
cambridge
plot
tapati
tent
हाइ
upload
jao
gharaanon
barood
##शियो
jami
plug
sharabbandi
टो
sehatmand
##iniy
shrinkhal
टिपस
##ymoon
isk
jahaajon
bash
##upar
khagadiya
wise
##oori
vishmata
##janee
shikshavid
fix
sevanivritti
झारखड
##48
sharmin
honeymoon
जायग
##ared
##quarter
anivaaryta
preparation
khaay
gundgardee
chie
##ng
##umandal
##aavati
dhakkan
nirvastr
##सवामी
बदधि
##tur
marxvaadi
moz
nation
yar
tehraate
cameraman
muharram
##ajor
fly
दखिए
##endo
##ological
padey
aagjanee
reduce
bande
nishiddh
darshaati
aiims
कावय
speakupforsscrailwaysstudents
यो
239
silicon
sarvangin
##saf
tatasth
khila
julm
torrents
##raph
aakiri
abhipr
##booz
thithur
bandhaa
getty
radar
थर
bechate
##piel
##hava
puliya
reporton
bamushkil
कोलकाता
tyohar
##एसटी
udhampur
##elle
uddyan
innovations
##laaya
republican
deshadroh
चद
khokar
##darshak
laharaa
kaya
uthanaa
##vent
sih
sukhdev
bhatija
santakabeernagar
parg
batalian
##यालयो
##atantric
tobag
honhaar
fatehabad
परभात
banana
asab
jagran
vrittant
navazuddin
##amia
##yalaya
ministry
तयोहार
सका
##ective
ghagghar
hssc
sarnath
vafaadaar
##aapee
bhejtaa
river
auchity
2nd
##vali
saalaa
ladata
utpaadakta
##khaane
##ोरन
भरोसा
parashar
##anesh
हकीकत
kau
chuta
santoshjanak
parilakshith
fx
##भमि
##ulam
shithil
couples
trinidad
##ौरय
taazgi
siie
##pi0
1952
samj
kshay
jei
सरविस
##walia
sdm
pam
छाप
##िऐ
##53
veena
bralle
monitering
भोजपरी
aik
baab
feader
##balaa
apnaanaa
बाढ
khulegaa
pradarshnkaree
##x7
अपील
##बीसी
rajkpur
palamu
vind
##शीट
sandarbhon
bolbalaa
chitrit
bhasha
##portun
राजयपाल
##धारा
सावधान
यानि
ses
##ists
supaul
tempo
paapi
कनद
##anthiyon
##tisgarh
rust
upas
chinese
prapoj
लिखन
arthshaastri
stay
##laati
slot
categories
aprakashit
maakhan
##ulac
सकडो
##zarbai
chadhaa
शही
padhati
dilaanaa
kshitij
##riyat
##uliyon
vyavasthaaen
reverse
भगत
rangadari
puducheri
garvi
176
bijanas
doge
dikhen
khatara
laud
jodta
बकिग
vekency
##bt
##टियो
abhiyojan
चोपडा
meher
1949
kaliyug
##rida
chaya
chhipak
kaari
sahakarmi
jakhm
##nem
vasi
chhab
shadol
##a0
khafa
फिलमी
praasangikta
daata
phikr
labhaarthi
kasne
##नस
shudra
##haard
luteron
udaahran
ईरान
eco
##pien
मिटटी
sulah
dikkatein
sidney
those
banega
machhliyon
##चद
bhitari
sanak
sachitr
adil
smap
geela
almaari
alabatta
nida
फाइनल
##bij
mais
awaaz
puruskaar
गोवा
अदाज
vanshavaad
athlete
shishtachar
vayumandal
jhand
katu
guate
slow
ugal
yaapan
सदा
maanad
dhaka
pahala
उठाया
##aq
##screen
mahaz
chahega
krte
कठिन
vyaakhyaata
bermuda
ui
faz
अवतार
kriyalap
##zatreen
bhaaratendu
rangar
बराबर
swamin
onsar
##सायन
brallep
lond
bhookha
वितरण
mangavane
esadio
bagi
ghaa
action
##tine
asantulan
airline
jaddojahad
naan
##ulaj
sarvopari
vyavhaarik
upal
maangata
bhucamp
apije
bahuguna
1973
##iyaale
tazatreen
parihaas
judakar
divakar
athul
sharminda
vishuddh
events
barbad
vyaraa
vankhe
##arthak
##गण
sukha
bhaang
abhiruchi
khya
tareeqe
जाहिर
दषट
sanvarg
vikaspur
chukaani
aalek
windies
iffko
##aved
sauhaard
##भि
सीता
raceling
पसो
##inir
ritis
vasiyat
nitigat
##धय
jwalamukhi
agnivesh
chadhaaya
sora
suree
nsa
##uboard
muf
हरान
candidet
heli
ushn
##rick
kaledhan
fruits
vikaskhand
ओपन
##सटिक
gumnaam
associat
जागरण
vikaspurush
laya
##gaya
कारयक
लघ
##modi
##therapy
##maree
berozegaron
done
jenifer
##ghati
##adhikaron
drilling
bhaashanon
drum
उतसा
prog
chhak
ibne
shikayatakarta
connect
लहरिया
gla
shayanyan
trast
##shriram
सौदरय
satt
bhagdad
padariyon
anurakshan
##aapi
vijayan
##59
muy
##ustak
ayurved
budhani
bahon
जटली
tanik
akshaya
पशन
##aalu
##ashetra
रिया
##cf
chunav
yogasana
कनदरीय
laayi
chalang
area
##योर
yashod
##isial
##बि
pakshdhar
bhatakate
##नाश
visa
archive
समरपित
आधर
1946
asamay
bhukhmaree
uniform
इलाको
doli
##aisiai
pvt
qutub
ashaas
मटरो
jac
दिखाया
बिलली
conclave
##mesi
permit
dayee
1976
faizabad
praadhyaapak
##दात
kheench
##eedit
kudarat
kamedian
through
##ढा
badhen
परगति
jamai
##walinews
taane
nyaayalayon
गतिविध
वारा
साइन
dabwalinews
nps
##aadhaa
##anz
##एक
sarkas
गोरखपर
viz
dhaany
##aariyon
sunris
handover
jhule
ashaaskeey
##atrika
##ubhai
जायगी
serena
ojasvi
kayakalp
##aaro
##khabre
varad
nihaar
matol
पषप
primi
kalejon
eth
भरम
##कथा
jabatak
bikharaa
insta
eliz
dehan
livekhabre
##वरो
bulgaria
jaatin
##aaiyaan
chitrag
##सको
करात
chandrapura
dominic
##taakar
##cej
nirj
stokes
parlor
katane
hindyug
बनकर
nandini
najayaz
खादय
devanagari
inside
paaoge
दौड
vidambnaa
सबोधित
epadi
सरवशरषठ
mik
tyon
roger
ubhara
##hole
khandit
bulandashahar
vyavasthaaon
ghana
ping
mujahidin
sunrisers
##ियॉलजी
bigha
##name
पीडिऐ
परोजकट
पीडिऐटरी
blogaron
ऑनकॉलजी
##amaha
chotil
destination
centimetre
karegein
##cin
##zone
kamdh
बनरजी
नारी
बराम
रली
dhanori
swamiji
कशयप
uti
##plin
यनिवरस
macedon
##narayan
##anaatmak
##akgeet
##enel
server
##osa
shair
nikalegaa
jipief
चाव
display
yantri
##nad
coast
अनदर
रोजाना
chaukon
prabhag
gujarey
भला
##bhaash
सोचा
hanumanji
sanvaarane
apmanjanak
##ер
vera
offisial
aushad
नोटबदी
cheshtaa
udghosh
openar
उनही
विततीय
nyoch
##ening
transmishan
doing
##गीय
jharne
##vasana
rajanyik
aniyamitata
hul
kwa
##achana
##odity
jalati
manjila
aaarasi
टकनोलॉजी
khaayen
sey
sofe
tithiyaan
khadyann
simi
udit
##िरण
netanya
anuraadhaa
chief
tadn
##72
chaka
tufaani
demen
अमीर
##vaanaa
manachaaha
बिकरी
##hek
coli
143
laji
##vah
viheen
yakeenan
परोफाइल
angare
dabocha
सॉफटवयर
padma
920
aun
token
##िसतानी
berlin
rood
वाक
nimitt
adhed
osman
##ranav
virodhabha
##raheen
modells
juuton
chattaanon
botswana
##ारक
hundai
maanik
noch
बयरो
सकटर
ganje
वाराणसी
##но
anarh
raajnneetijna
norwegian
shekhavat
##lat
usse
archiv
ramcharita
परसनन
ghuma
##charitamanas
allaudin
janavaadee
lengi
khiladiyon
abaki
baitool
##rency
##धिया
dharn
##cell
kharchon
शदध
vaaste
##jama
dharmaveer
skype
charamp
aansuon
सली
##aditya
sarvasammati
जज
##haton
bandaron
pramann
दिसमबर
दरशको
guatemala
एकदम
opportun
kbc
hich
##zealand
कमाई
फरजी
कसी
pandub
isiaisiai
vasula
brahmak
teraa
chutkula
celibrity
congou
##ulder
senapati
##ोरम
दरगा
##abeth
baalkon
raatbhar
##tamaal
सोनिया
##endeya
##alli
गिरावट
दष
sopan
yogic
##opor
ससकार
deshvasi
otipi
##adih
chitrakala
इसको
rashtriyata
jamaaya
##arating
havas
मीणा
##vaal
##khul
deje
banty
##pance
chutiye
खिलाडियो
peedica
खलन
bigadi
tehraav
rti
##vyapee
chamade
jimmevary
downaloder
##mekar
sankhyikee
harakatein
steroid
koshik
atra
srig
benipattee
##वाजा
##onian
##ravi
oneplus
##akan
210
कशल
##ilian
khusro
dhoomil
andhvishwas
पजन
##बारी
hamamen
bataayen
shilajeet
ranneetiyon
adhyan
पढा
चौक
##राइट
##ix
banpar
chaahoonga
cord
salon
1951
sana
हजर
sutar
##daad
intar
sick
अपकषा
खतरा
brune
taskaron
kamdhenu
##hatya
awards
##lies
instrum
risaav
जगदीश
सनकर
##विशवास
dere
rim
finnish
##vertise
others
york
tikit
pachhat
nia
trad
ghodi
शरील
piyushgoyal
##nig
##ikaon
foloar
##shahrukh
sabamein
paudh
villen
ijazat
##aliyon
thame
sudeep
manm
shawl
faramaaya
bauch
leh
aayatein
svarnim
upja
kamaate
##ottej
##ayd
bulaae
kasoor
दशक
bataayi
sumitra
gunagun
mohab
spirit
salah
##counts
diy
muniyon
raan
##हि
##iyojit
nilu
##aputra
dhonaa
saaton
kinhin
jds
##stone
shid
khatkha
जापानी
jinping
परौदयोगिकी
##rier
miller
maharajaganj
गरामर
abeepi
paragraph
rohtas
voh
gutkha
slip
jaanaten
satahon
##ayun
purajor
dildo
अगली
##eebhoot
sac
baram
farjiv
vietnami
swaarthee
जडा
##evaala
nibhaana
aniruddh
kamred
निभ
taaliyaan
bipin
राफल
बराहम
torchar
##ities
totako
sicurity
jiy
pictures
##amarg
blackmel
##लोक
ताला
मौजदा
बचचन
gidad
sabamit
manyat
santare
kurta
manhagaa
newclear
मय
kalaadhan
olero
##waade
bog
chhaale
sochiye
dehanth
stu
pakur
rahamat
pannu
परतिकरिया
##ukik
tejpur
1905
बागला
dahala
##lekha
bhaagi
murd
yunus
पतरकारो
##िमी
daldal
kareem
anko
nisht
##vay
##avastu
##udand
परिसर
maute
chuphi
##anganagar
dled
रोमा
cheenk
ult
हारदिक
phenkakar
vijayadashami
##carde
##phoid
dairedev
panc
kadai
##तरीय
कपिल
pentry
daraavne
prativedan
rika
kanf
kuli
##kho
hichak
adhyayanon
khalipha
psy
sna
पाद
sina
इधर
##parasi
manaahi
paanchavaa
abhipraay
kharab
krooj
हलदी
poonjiv
daai
gavaskar
jhopadi
jump
samvednaatmak
published
jigyaas
surajevaala
##iyaat
safari
redmy
##asata
##ahas
##sevi
ladli
pishaa
##0tii
daagi
patnayak
##hul
amla
1916
smog
##gt
jhelane
चनावी
fingerprint
कॉर
jait
##amans
##फिल
lado
taai
आड
##ughad
granthalay
##शाह
##दिन
aaha
##erate
कहता
shrinkhalaayen
##तः
1920
piro
वाद
upkhand
nazaron
srujit
smapda
parab
patent
jaai
जिलो
##raan
अकाउट
rache
kundalini
sahansheel
ravish
maharathi
bemaani
pratishthanon
chuhon
administration
sorain
##kaaran
dharmadharm
समझा
tispun
विकरम
emspi
zehar
nihar
आएगी
निरमाता
buzurg
filmaaya
जापान
khagoleey
athulaneey
फोरस
bharan
manna
janshatabdi
laachaar
integr
someone
##gate
##ॉम
नियमो
tarbooz
tidipi
crypto
raajak
raajpur
जनमद
गराहको
calculator
shrawani
हफत
##dilip
kuchlaa
##mantrit
loakgeet
नियकति
hk
##सवाल
hasina
आरट
varde
##paper
rasag
krodhit
जबरद
soharabuddin
गावो
browz
padman
tavajjo
sriganganagar
दिक
178
dubkee
##vartmaan
halat
sisak
vampanth
##hydration
phaansi
virangana
aalsee
##टनागर
jabase
dhili
ikatthe
हाईकोरट
sohan
taaje
shabar
redcross
printing
रिजलट
slab
##udhan
अनन
dampatti
gorakhnath
magaramchh
hajaaro
अनराग
dairedevills
nibat
netanyahu
enesayu
jishaan
##fes
##ashaah
kaira
rakhaav
damodar
dukhon
##करमण
upanyaason
iraqi
dhaava
indradhanush
royles
paroksh
jhut
khwaab
khao
wois
##nav
##ssalam
saktin
belistic
1966
##aano
sakaten
bhadki
वासतविक
deepali
pujaara
uthaata
paanchavi
bauchhaar
##ensi
##lek
insan
ayur
private
तमहारी
anuvaadit
tijiti
##ाइम
औरत
shubhakamana
cashles
tikaoo
choot
mahakavy
aayojakon
ओम
##yega
##sanathan
eso
maths
##rushtataa
kb
sahel
##charitamans
aki
choom
joins
##yappa
दवित
defence
abhiyuk
anamika
##eekhe
crorepati
jyotishacharya
sein
##kie
##girl
माय
##ahabharat
nirogi
hontho
andheraa
##wich
bajaate
kathghare
##akshiyon
##priy
simaaen
माया
nashili
remove
##ashah
kune
aaplog
##sitaron
nasbandi
1942
लबी
##viyon
itihas
##haae
sauj
lankesh
syndrome
chunaavo
##mantra
##arel
मनमोहन
punarikshan
khelcricket
##chalanya
yatrashriram
darshanshir
hanumansanathan
sansarvartmaan
##shmahabharat
rankingshed
eastern
samachalanya
babajyothi
##scorcarde
tyohardharm
##ulacricket
aalekhakhel
andhvishwasalekh
shrinkhalaayenscorcarde
##charitamansastha
yatrashriramcharitamansastha
darshanshirady
##shmahabharatajay
rankingshedulacricket
babajyothishmahabharatajay
shrinkhalaayenscorcardeisisi
khwaja
bolchaal
chattan
##kaalik
पोरटल
balmiki
maaria
##adainik
jaagrath
##eratn
kaayade
kalpanaaon
##police
##ranavagraha
seekhenn
bakhsha
yantravastu
##shlak
आदितयनाथ
elizabeth
##eemat
##achughad
milanjan
##eepatrika
##khajyotish
##makundal
vigyaanjyotish
rashifalarashi
janmdinaaj
परिजनो
##iramshlak
sitareratn
dharmanirpekshata
##akshatranavagraha
muhurtadainik
bhavishyavaneepatrika
##iyaalekhajyotish
seekhennakshatranavagraha
##achughadiyaalekhajyotish
milanjanmakundal
##iramshlakachughadiyaalekhajyotish
seekhennakshatranavagrahasitaron
milanjanmakundaliramshlakachughadiyaalekhajyotish
##ambi
orders
olympi
enesayuai
जानकार
##maaish
adharm
धवन
##asor
took
rota
##rakash
jamaica
pagadi
लम
apsha
रायपर
kunjiyaan
universal
1100
poten
काड
##तावनी
##uya
##िषट
vailem
वाता
guyana
aach
चाहिय
taab
##lift
bham
videon
williams
tk
##िटिकल
कीमतो
##charizer
jhajjar
चतावनी
prashnottaree
##sch
advertise
bna
इदर
vailemtine
##mance
##portal
अफरीका
samagam
किनार
दिलच
condishn
patrachaar
##हह
sareekhe
rambharose
kothaari
mohataaj
##eno
##staron
##ानसार
jaitoon
lautaane
##sana
##entine
sudh
##ritaon
##ovo
duubate
atipi
##mulakat
galiyaaron
##agupta
भीम
sanjivani
magahi
khamiyaan
newzealand
prajval
पीठ
##stylee
##asiced
qurbaan
परोफसर
upbasiced
aapki
##amovi
thaharne
anat
##berry
filmpho
regard
cis
poshit
khantivi
kumarkhul
simsalman
##cusdilip
masalamovi
##alekhaane
leonshahrukh
rivyualekhaane
##mulakatmanoranjan
filmphocusdilip
khantivimulakatmanoranjan
simsalmansani
##edar
shootout
पकति
bara
swift
विरदध
saayam
##uktiyon
maarmik
पोषण
##olin
jaagi
##adimir
##कीन
datia
lahool
agyaan
osama
build
ढढ
rahulgandhi
cycl
dwarka
qeemat
##vati
nijeekaran
राठौर
vidyalaya
glamer
jodha
jidhar
upbasiceduboard
chechak
rwanda
aagyaa
##pa0
कलर
भटनागर
chy
railgadee
jeetenge
vishaywastu
taanashaah
आलख
##chaalak
shararti
darshanon
ila
chidya
kursiyan
ell
bachataa
tek
आदत
lahooluhaan
shur
daakhile
जीन
##ोधन
##ोनस
aircraft
uljhe
लती
चहरा
##ouj
##बद
saptar
##hanagar
bachate
##पि
sharia
phog
paao
muhaavara
emke
bigul
दरघटना
haashi
anug
proce
sanidhya
pikup
dhil
##eeper
##ravati
बलातकार
kysth
nusrat
peshewaron
jya
siver
समाजवादी
jokovich
budd
[...]
